{
  "0": "\u0000",
  "1": "\u0001",
  "2": "\u0002",
  "3": "\u0003",
  "4": "\u0004",
  "5": "\u0005",
  "6": "\u0006",
  "7": "\u0007",
  "8": "\b",
  "9": "\t",
  "10": "\n",
  "11": "\u000b",
  "12": "\f",
  "13": "\r",
  "14": "\u000e",
  "15": "\u000f",
  "16": "\u0010",
  "17": "\u0011",
  "18": "\u0012",
  "19": "\u0013",
  "20": "\u0014",
  "21": "\u0015",
  "22": "\u0016",
  "23": "\u0017",
  "24": "\u0018",
  "25": "\u0019",
  "26": "\u001a",
  "27": "\u001b",
  "28": "\u001c",
  "29": "\u001d",
  "30": "\u001e",
  "31": "\u001f",
  "32": " ",
  "33": "!",
  "34": "\"",
  "35": "#",
  "36": "$",
  "37": "%",
  "38": "&",
  "39": "'",
  "40": "(",
  "41": ")",
  "42": "*",
  "43": "+",
  "44": ",",
  "45": "-",
  "46": ".",
  "47": "/",
  "48": "0",
  "49": "1",
  "50": "2",
  "51": "3",
  "52": "4",
  "53": "5",
  "54": "6",
  "55": "7",
  "56": "8",
  "57": "9",
  "58": ":",
  "59": ";",
  "60": "<",
  "61": "=",
  "62": ">",
  "63": "?",
  "64": "@",
  "65": "A",
  "66": "B",
  "67": "C",
  "68": "D",
  "69": "E",
  "70": "F",
  "71": "G",
  "72": "H",
  "73": "I",
  "74": "J",
  "75": "K",
  "76": "L",
  "77": "M",
  "78": "N",
  "79": "O",
  "80": "P",
  "81": "Q",
  "82": "R",
  "83": "S",
  "84": "T",
  "85": "U",
  "86": "V",
  "87": "W",
  "88": "X",
  "89": "Y",
  "90": "Z",
  "91": "[",
  "92": "\\",
  "93": "]",
  "94": "^",
  "95": "_",
  "96": "`",
  "97": "a",
  "98": "b",
  "99": "c",
  "100": "d",
  "101": "e",
  "102": "f",
  "103": "g",
  "104": "h",
  "105": "i",
  "106": "j",
  "107": "k",
  "108": "l",
  "109": "m",
  "110": "n",
  "111": "o",
  "112": "p",
  "113": "q",
  "114": "r",
  "115": "s",
  "116": "t",
  "117": "u",
  "118": "v",
  "119": "w",
  "120": "x",
  "121": "y",
  "122": "z",
  "123": "{",
  "124": "|",
  "125": "}",
  "126": "~",
  "127": "",
  "128": "�",
  "129": "�",
  "130": "�",
  "131": "�",
  "132": "�",
  "133": "�",
  "134": "�",
  "135": "�",
  "136": "�",
  "137": "�",
  "138": "�",
  "139": "�",
  "140": "�",
  "141": "�",
  "142": "�",
  "143": "�",
  "144": "�",
  "145": "�",
  "146": "�",
  "147": "�",
  "148": "�",
  "149": "�",
  "150": "�",
  "151": "�",
  "152": "�",
  "153": "�",
  "154": "�",
  "155": "�",
  "156": "�",
  "157": "�",
  "158": "�",
  "159": "�",
  "160": "�",
  "161": "�",
  "162": "�",
  "163": "�",
  "164": "�",
  "165": "�",
  "166": "�",
  "167": "�",
  "168": "�",
  "169": "�",
  "170": "�",
  "171": "�",
  "172": "�",
  "173": "�",
  "174": "�",
  "175": "�",
  "176": "�",
  "177": "�",
  "178": "�",
  "179": "�",
  "180": "�",
  "181": "�",
  "182": "�",
  "183": "�",
  "184": "�",
  "185": "�",
  "186": "�",
  "187": "�",
  "188": "�",
  "189": "�",
  "190": "�",
  "191": "�",
  "192": "�",
  "193": "�",
  "194": "�",
  "195": "�",
  "196": "�",
  "197": "�",
  "198": "�",
  "199": "�",
  "200": "�",
  "201": "�",
  "202": "�",
  "203": "�",
  "204": "�",
  "205": "�",
  "206": "�",
  "207": "�",
  "208": "�",
  "209": "�",
  "210": "�",
  "211": "�",
  "212": "�",
  "213": "�",
  "214": "�",
  "215": "�",
  "216": "�",
  "217": "�",
  "218": "�",
  "219": "�",
  "220": "�",
  "221": "�",
  "222": "�",
  "223": "�",
  "224": "�",
  "225": "�",
  "226": "�",
  "227": "�",
  "228": "�",
  "229": "�",
  "230": "�",
  "231": "�",
  "232": "�",
  "233": "�",
  "234": "�",
  "235": "�",
  "236": "�",
  "237": "�",
  "238": "�",
  "239": "�",
  "240": "�",
  "241": "�",
  "242": "�",
  "243": "�",
  "244": "�",
  "245": "�",
  "246": "�",
  "247": "�",
  "248": "�",
  "249": "�",
  "250": "�",
  "251": "�",
  "252": "�",
  "253": "�",
  "254": "�",
  "255": "�",
  "256": " t",
  "257": " a",
  "258": "he",
  "259": "in",
  "260": "re",
  "261": " the",
  "262": "on",
  "263": "er",
  "264": " s",
  "265": " w",
  "266": "at",
  "267": " o",
  "268": "en",
  "269": " c",
  "270": "it",
  "271": "is",
  "272": "an",
  "273": "or",
  "274": " b",
  "275": "es",
  "276": "ed",
  "277": " f",
  "278": "ing",
  "279": " p",
  "280": "ou",
  "281": " an",
  "282": "al",
  "283": " to",
  "284": "ar",
  "285": " m",
  "286": " in",
  "287": " of",
  "288": " h",
  "289": " d",
  "290": "as",
  "291": "�",
  "292": "ic",
  "293": " and",
  "294": " th",
  "295": "le",
  "296": "om",
  "297": "ion",
  "298": "ll",
  "299": "ent",
  "300": " n",
  "301": " l",
  "302": " re",
  "303": "st",
  "304": "ve",
  "305": " e",
  "306": "ly",
  "307": " be",
  "308": " g",
  "309": "ro",
  "310": "id",
  "311": "ac",
  "312": "ut",
  "313": "ot",
  "314": " T",
  "315": " I",
  "316": " that",
  "317": " on",
  "318": "ay",
  "319": " S",
  "320": " is",
  "321": "am",
  "322": "im",
  "323": "et",
  "324": "ad",
  "325": "ow",
  "326": "ig",
  "327": "se",
  "328": " for",
  "329": "’",
  "330": " A",
  "331": "ver",
  "332": "ld",
  "333": "ur",
  "334": "ct",
  "335": " C",
  "336": " u",
  "337": " st",
  "338": " y",
  "339": " it",
  "340": " he",
  "341": "ir",
  "342": "ation",
  "343": "ith",
  "344": " wh",
  "345": " M",
  "346": "ce",
  "347": "ter",
  "348": "ol",
  "349": " we",
  "350": "il",
  "351": " with",
  "352": " as",
  "353": " B",
  "354": "ch",
  "355": "ill",
  "356": "nd",
  "357": " was",
  "358": "ers",
  "359": " P",
  "360": " you",
  "361": "ke",
  "362": " �",
  "363": " con",
  "364": " de",
  "365": " r",
  "366": "if",
  "367": "her",
  "368": "ate",
  "369": " at",
  "370": "ag",
  "371": " W",
  "372": " ha",
  "373": " se",
  "374": " H",
  "375": "ore",
  "376": "ul",
  "377": " pro",
  "378": "pp",
  "379": "ment",
  "380": " 1",
  "381": " D",
  "382": " are",
  "383": "ri",
  "384": "est",
  "385": "us",
  "386": "ist",
  "387": " R",
  "388": " com",
  "389": "and",
  "390": "ain",
  "391": "op",
  "392": " 2",
  "393": " The",
  "394": "igh",
  "395": " (",
  "396": "th",
  "397": "rom",
  "398": "od",
  "399": " ne",
  "400": " F",
  "401": "um",
  "402": "un",
  "403": " ex",
  "404": "”",
  "405": "ab",
  "406": "res",
  "407": " N",
  "408": " not",
  "409": " v",
  "410": "ess",
  "411": " have",
  "412": "ould",
  "413": "ity",
  "414": "em",
  "415": " or",
  "416": "ort",
  "417": " by",
  "418": "os",
  "419": "ant",
  "420": " G",
  "421": " from",
  "422": "ive",
  "423": " al",
  "424": "'s",
  "425": " su",
  "426": "el",
  "427": "art",
  "428": "oc",
  "429": " L",
  "430": " sh",
  "431": " this",
  "432": "nt",
  "433": "qu",
  "434": "ight",
  "435": "ust",
  "436": "00",
  "437": "pe",
  "438": " le",
  "439": "ies",
  "440": "end",
  "441": " ch",
  "442": " sa",
  "443": "out",
  "444": " E",
  "445": "The",
  "446": " ab",
  "447": "ie",
  "448": "ack",
  "449": "all",
  "450": " “",
  "451": "red",
  "452": " J",
  "453": " has",
  "454": " pl",
  "455": "ally",
  "456": " go",
  "457": "ard",
  "458": "ap",
  "459": "ear",
  "460": " his",
  "461": "iv",
  "462": "ome",
  "463": "gh",
  "464": "ost",
  "465": "ast",
  "466": "our",
  "467": " O",
  "468": " tr",
  "469": " j",
  "470": "ak",
  "471": " wor",
  "472": "ud",
  "473": " they",
  "474": " do",
  "475": " but",
  "476": " said",
  "477": "ge",
  "478": " can",
  "479": " will",
  "480": "rou",
  "481": " whe",
  "482": " U",
  "483": " k",
  "484": "ok",
  "485": "ich",
  "486": " all",
  "487": " who",
  "488": "ide",
  "489": " \"",
  "490": "ame",
  "491": " int",
  "492": "ther",
  "493": "ans",
  "494": " out",
  "495": " their",
  "496": "ff",
  "497": "ial",
  "498": "ect",
  "499": "ong",
  "500": "pl",
  "501": "ice",
  "502": "ure",
  "503": "pt",
  "504": " more",
  "505": "age",
  "506": "ions",
  "507": "ous",
  "508": "ike",
  "509": "one",
  "510": "act",
  "511": " me",
  "512": " up",
  "513": "ine",
  "514": " ad",
  "515": " about",
  "516": "ra",
  "517": "ime",
  "518": "ated",
  "519": " were",
  "520": " one",
  "521": "ber",
  "522": "og",
  "523": " us",
  "524": " so",
  "525": "ep",
  "526": " had",
  "527": "ub",
  "528": "are",
  "529": "ia",
  "530": "cc",
  "531": "ue",
  "532": " 20",
  "533": " K",
  "534": " cl",
  "535": " would",
  "536": " im",
  "537": "ind",
  "538": "iz",
  "539": " ag",
  "540": " which",
  "541": "ake",
  "542": "very",
  "543": " te",
  "544": " cont",
  "545": " un",
  "546": " off",
  "547": " been",
  "548": " comp",
  "549": " St",
  "550": "so",
  "551": "au",
  "552": " year",
  "553": "per",
  "554": " Th",
  "555": " en",
  "556": "ign",
  "557": "ew",
  "558": "ip",
  "559": "ary",
  "560": "ace",
  "561": " like",
  "562": "ook",
  "563": "ven",
  "564": "ere",
  "565": "ays",
  "566": " man",
  "567": " inc",
  "568": "ry",
  "569": " pe",
  "570": "ose",
  "571": "able",
  "572": "ite",
  "573": " res",
  "574": " per",
  "575": "ord",
  "576": "ass",
  "577": " sp",
  "578": "mer",
  "579": " other",
  "580": " In",
  "581": " some",
  "582": "ile",
  "583": "ire",
  "584": " 201",
  "585": "ib",
  "586": "ople",
  "587": "ence",
  "588": "ical",
  "589": " new",
  "590": " there",
  "591": " over",
  "592": "ations",
  "593": "ks",
  "594": "ult",
  "595": " dis",
  "596": "ress",
  "597": " also",
  "598": "own",
  "599": " than",
  "600": " ar",
  "601": "ough",
  "602": " bec",
  "603": "int",
  "604": " them",
  "605": "ance",
  "606": "ail",
  "607": "port",
  "608": " when",
  "609": " app",
  "610": "ond",
  "611": "ount",
  "612": "ru",
  "613": " your",
  "614": "ree",
  "615": " part",
  "616": " people",
  "617": " what",
  "618": " qu",
  "619": "fter",
  "620": "orm",
  "621": " sc",
  "622": "av",
  "623": " Ch",
  "624": " Y",
  "625": " just",
  "626": "ase",
  "627": " any",
  "628": " kn",
  "629": " 3",
  "630": " its",
  "631": " time",
  "632": "ach",
  "633": " her",
  "634": " It",
  "635": " V",
  "636": "reat",
  "637": " if",
  "638": " my",
  "639": "ens",
  "640": " rec",
  "641": "ick",
  "642": " get",
  "643": "vel",
  "644": ".”",
  "645": " into",
  "646": "ound",
  "647": "irst",
  "648": " tw",
  "649": " no",
  "650": "ian",
  "651": " work",
  "652": "ction",
  "653": "du",
  "654": " -",
  "655": "ings",
  "656": "ory",
  "657": "lic",
  "658": " play",
  "659": " our",
  "660": "ition",
  "661": "ident",
  "662": "ors",
  "663": " pre",
  "664": "ob",
  "665": "ang",
  "666": "ove",
  "667": "ink",
  "668": "ade",
  "669": "ish",
  "670": "ause",
  "671": "wn",
  "672": "itt",
  "673": "ark",
  "674": "ates",
  "675": "amp",
  "676": " she",
  "677": " ro",
  "678": ",”",
  "679": " co",
  "680": "vers",
  "681": " pol",
  "682": " first",
  "683": " after",
  "684": " how",
  "685": " could",
  "686": "ne",
  "687": "ious",
  "688": "nder",
  "689": " acc",
  "690": " He",
  "691": "ild",
  "692": "'t",
  "693": " 19",
  "694": " him",
  "695": " po",
  "696": "aw",
  "697": "ons",
  "698": " att",
  "699": "hed",
  "700": " fe",
  "701": " only",
  "702": " pr",
  "703": "ict",
  "704": " two",
  "705": "hing",
  "706": "we",
  "707": "“",
  "708": "ov",
  "709": " ser",
  "710": " spe",
  "711": "form",
  "712": " comm",
  "713": ".\"",
  "714": " bl",
  "715": " bet",
  "716": " act",
  "717": "ning",
  "718": " dec",
  "719": " back",
  "720": "ft",
  "721": "te",
  "722": "ces",
  "723": " most",
  "724": "oy",
  "725": "ood",
  "726": " 4",
  "727": " am",
  "728": " did",
  "729": "ck",
  "730": " again",
  "731": "iff",
  "732": "rough",
  "733": "round",
  "734": "ater",
  "735": " under",
  "736": " want",
  "737": "day",
  "738": "ual",
  "739": " –",
  "740": "ise",
  "741": " —",
  "742": "rit",
  "743": " years",
  "744": "sel",
  "745": "ull",
  "746": "..",
  "747": "ents",
  "748": " des",
  "749": " because",
  "750": " now",
  "751": ",\"",
  "752": "tern",
  "753": " even",
  "754": " cons",
  "755": "lud",
  "756": " know",
  "757": "ublic",
  "758": "iss",
  "759": " inv",
  "760": " need",
  "761": "ec",
  "762": "man",
  "763": "old",
  "764": " sec",
  "765": " see",
  "766": " add",
  "767": " ind",
  "768": " We",
  "769": "ments",
  "770": " every",
  "771": "ced",
  "772": " $",
  "773": "fore",
  "774": "uch",
  "775": " 5",
  "776": "urn",
  "777": " make",
  "778": " supp",
  "779": " Un",
  "780": " em",
  "781": "pect",
  "782": " these",
  "783": "oll",
  "784": "ject",
  "785": "ock",
  "786": " where",
  "787": " look",
  "788": "ational",
  "789": "ump",
  "790": "In",
  "791": "ason",
  "792": " bu",
  "793": "vern",
  "794": "iew",
  "795": " don",
  "796": " way",
  "797": "xt",
  "798": " right",
  "799": " And",
  "800": "ily",
  "801": " being",
  "802": "Th",
  "803": "ng",
  "804": " ev",
  "805": "les",
  "806": " may",
  "807": "ating",
  "808": "oss",
  "809": " Tr",
  "810": " diff",
  "811": " many",
  "812": " rel",
  "813": " rem",
  "814": " then",
  "815": "row",
  "816": "lect",
  "817": " def",
  "818": "ased",
  "819": " call",
  "820": "ath",
  "821": " think",
  "822": "ied",
  "823": " But",
  "824": "meric",
  "825": "aking",
  "826": " [",
  "827": "ited",
  "828": " last",
  "829": " includ",
  "830": "ont",
  "831": " imp",
  "832": " say",
  "833": " through",
  "834": " should",
  "835": " those",
  "836": "ower",
  "837": "ific",
  "838": "other",
  "839": ").",
  "840": "uring",
  "841": " reg",
  "842": " fl",
  "843": " very",
  "844": "ell",
  "845": " pres",
  "846": "rib",
  "847": " sy",
  "848": " much",
  "849": "arg",
  "850": "ities",
  "851": " br",
  "852": " show",
  "853": " state",
  "854": "ting",
  "855": "ss",
  "856": "hen",
  "857": " This",
  "858": " bel",
  "859": "ved",
  "860": " ph",
  "861": "ty",
  "862": " well",
  "863": "ative",
  "864": "ics",
  "865": "ange",
  "866": " Wh",
  "867": " end",
  "868": " does",
  "869": "und",
  "870": " own",
  "871": " down",
  "872": " ass",
  "873": "als",
  "874": " 200",
  "875": "com",
  "876": "ters",
  "877": "arly",
  "878": "oth",
  "879": " count",
  "880": " mon",
  "881": " Americ",
  "882": " use",
  "883": "ince",
  "884": "ward",
  "885": "omet",
  "886": " before",
  "887": " long",
  "888": " team",
  "889": "up",
  "890": " start",
  "891": "gr",
  "892": " New",
  "893": "ues",
  "894": " govern",
  "895": " report",
  "896": " ke",
  "897": "ible",
  "898": "olog",
  "899": "ener",
  "900": "ert",
  "901": "ife",
  "902": " made",
  "903": "ren",
  "904": "ble",
  "905": " fin",
  "906": "--",
  "907": "oun",
  "908": "ix",
  "909": "It",
  "910": " sm",
  "911": " world",
  "912": " such",
  "913": " game",
  "914": "erson",
  "915": " going",
  "916": "),",
  "917": " sub",
  "918": "000",
  "919": " good",
  "920": "ful",
  "921": " hel",
  "922": "ism",
  "923": "ek",
  "924": " ac",
  "925": " against",
  "926": " 6",
  "927": "ility",
  "928": "ork",
  "929": "ually",
  "930": " gu",
  "931": " point",
  "932": " sur",
  "933": " stud",
  "934": " eff",
  "935": "ts",
  "936": "ys",
  "937": "gan",
  "938": " ent",
  "939": "its",
  "940": "ists",
  "941": "ier",
  "942": " still",
  "943": " set",
  "944": "ars",
  "945": "ax",
  "946": "ween",
  "947": " lead",
  "948": " help",
  "949": " gr",
  "950": "imes",
  "951": "roup",
  "952": " says",
  "953": "ving",
  "954": " col",
  "955": " min",
  "956": "ef",
  "957": "stem",
  "958": " ob",
  "959": "—",
  "960": "io",
  "961": " while",
  "962": "alk",
  "963": "ms",
  "964": "illion",
  "965": " produ",
  "966": "self",
  "967": "ank",
  "968": " sim",
  "969": " though",
  "970": " between",
  "971": "cy",
  "972": " take",
  "973": " same",
  "974": "cess",
  "975": "ah",
  "976": " differe",
  "977": "ollow",
  "978": " num",
  "979": " str",
  "980": "ures",
  "981": "ames",
  "982": " conf",
  "983": " high",
  "984": " inter",
  "985": "arch",
  "986": "ever",
  "987": " cr",
  "988": " op",
  "989": "air",
  "990": " inst",
  "991": "uss",
  "992": " sign",
  "993": " Re",
  "994": "atch",
  "995": " offic",
  "996": "ool",
  "997": "led",
  "998": " law",
  "999": "hip",
  "1000": " disc",
  "1001": "cent",
  "1002": "gg",
  "1003": "ner",
  "1004": " prov",
  "1005": "way",
  "1006": " ins",
  "1007": " ret",
  "1008": "read",
  "1009": "hes",
  "1010": "any",
  "1011": "velop",
  "1012": " government",
  "1013": " somet",
  "1014": " ed",
  "1015": "land",
  "1016": "ution",
  "1017": " med",
  "1018": "We",
  "1019": " three",
  "1020": " ref",
  "1021": "ee",
  "1022": " ter",
  "1023": " trans",
  "1024": " found",
  "1025": "ouse",
  "1026": " run",
  "1027": " around",
  "1028": " here",
  "1029": " 10",
  "1030": " real",
  "1031": " Al",
  "1032": " used",
  "1033": "oot",
  "1034": " mem",
  "1035": "ather",
  "1036": " You",
  "1037": "ave",
  "1038": "ives",
  "1039": "az",
  "1040": "ale",
  "1041": "con",
  "1042": " exp",
  "1043": " system",
  "1044": "alth",
  "1045": "ets",
  "1046": " sl",
  "1047": "ci",
  "1048": " group",
  "1049": "cept",
  "1050": " Ar",
  "1051": " 7",
  "1052": " really",
  "1053": "ves",
  "1054": " support",
  "1055": " cour",
  "1056": "ense",
  "1057": " Trump",
  "1058": " hand",
  "1059": "ins",
  "1060": " great",
  "1061": "ph",
  "1062": " wom",
  "1063": " mod",
  "1064": " public",
  "1065": " fam",
  "1066": "ying",
  "1067": " spec",
  "1068": " ext",
  "1069": " cap",
  "1070": " cur",
  "1071": " car",
  "1072": "ern",
  "1073": " read",
  "1074": " They",
  "1075": " fact",
  "1076": "pr",
  "1077": "ision",
  "1078": " Cl",
  "1079": "ton",
  "1080": " find",
  "1081": " day",
  "1082": "oh",
  "1083": " exper",
  "1084": " fr",
  "1085": " happ",
  "1086": "ular",
  "1087": "aj",
  "1088": " both",
  "1089": " month",
  "1090": "irect",
  "1091": " during",
  "1092": " Com",
  "1093": " det",
  "1094": "ines",
  "1095": " rep",
  "1096": "ices",
  "1097": " Is",
  "1098": " Sh",
  "1099": " told",
  "1100": " develop",
  "1101": "uth",
  "1102": " big",
  "1103": "ered",
  "1104": " follow",
  "1105": "the",
  "1106": " As",
  "1107": " iss",
  "1108": " cre",
  "1109": "ex",
  "1110": " person",
  "1111": "ivers",
  "1112": "min",
  "1113": " since",
  "1114": " cent",
  "1115": "ording",
  "1116": " war",
  "1117": "akes",
  "1118": " 0",
  "1119": " week",
  "1120": "ared",
  "1121": "ric",
  "1122": "ages",
  "1123": " 8",
  "1124": " few",
  "1125": "ically",
  "1126": " polit",
  "1127": " belie",
  "1128": "med",
  "1129": ".[",
  "1130": " Le",
  "1131": " leg",
  "1132": " gener",
  "1133": "ash",
  "1134": "anc",
  "1135": " expl",
  "1136": " lot",
  "1137": "bers",
  "1138": " contin",
  "1139": "ention",
  "1140": "ness",
  "1141": " prot",
  "1142": "get",
  "1143": "iet",
  "1144": " too",
  "1145": "der",
  "1146": " put",
  "1147": "rent",
  "1148": " soc",
  "1149": "orn",
  "1150": " If",
  "1151": "Wh",
  "1152": " requ",
  "1153": " opp",
  "1154": " another",
  "1155": " 9",
  "1156": " resp",
  "1157": " something",
  "1158": "ized",
  "1159": " different",
  "1160": "chool",
  "1161": "att",
  "1162": " cle",
  "1163": " inf",
  "1164": " pass",
  "1165": " loc",
  "1166": " second",
  "1167": "ata",
  "1168": " life",
  "1169": " plan",
  "1170": "view",
  "1171": " met",
  "1172": " De",
  "1173": " invest",
  "1174": "ody",
  "1175": " far",
  "1176": " fil",
  "1177": "ross",
  "1178": " head",
  "1179": " child",
  "1180": " char",
  "1181": "iness",
  "1182": "thing",
  "1183": "ience",
  "1184": " che",
  "1185": " commun",
  "1186": "erest",
  "1187": "ik",
  "1188": " rele",
  "1189": " power",
  "1190": " never",
  "1191": " things",
  "1192": " bus",
  "1193": "arl",
  "1194": " poss",
  "1195": "ize",
  "1196": " camp",
  "1197": " bo",
  "1198": "ield",
  "1199": "uc",
  "1200": " dep",
  "1201": "ute",
  "1202": "ret",
  "1203": "ants",
  "1204": " might",
  "1205": " adv",
  "1206": "ient",
  "1207": " ask",
  "1208": " got",
  "1209": " each",
  "1210": " quest",
  "1211": " ‘",
  "1212": " vot",
  "1213": "This",
  "1214": " art",
  "1215": " best",
  "1216": " next",
  "1217": " For",
  "1218": " mark",
  "1219": "cl",
  "1220": " Fr",
  "1221": " dem",
  "1222": " allow",
  "1223": " cor",
  "1224": " come",
  "1225": "20",
  "1226": " '",
  "1227": " That",
  "1228": " Se",
  "1229": " seem",
  "1230": "ittle",
  "1231": " feel",
  "1232": "nce",
  "1233": " percent",
  "1234": " An",
  "1235": " wr",
  "1236": "ital",
  "1237": "son",
  "1238": "ten",
  "1239": " incre",
  "1240": " post",
  "1241": "rat",
  "1242": "ple",
  "1243": "ug",
  "1244": " home",
  "1245": " .",
  "1246": " av",
  "1247": " dist",
  "1248": " open",
  "1249": "erv",
  "1250": " care",
  "1251": "gram",
  "1252": "ired",
  "1253": " US",
  "1254": " contro",
  "1255": "less",
  "1256": " pri",
  "1257": " hard",
  "1258": "chn",
  "1259": " Rep",
  "1260": "osed",
  "1261": " result",
  "1262": " Pro",
  "1263": " season",
  "1264": "ral",
  "1265": " direct",
  "1266": "__",
  "1267": " Bl",
  "1268": "ately",
  "1269": " hum",
  "1270": " place",
  "1271": "gy",
  "1272": " number",
  "1273": " build",
  "1274": " without",
  "1275": " four",
  "1276": " inform",
  "1277": " including",
  "1278": "co",
  "1279": " top",
  "1280": "ama",
  "1281": " million",
  "1282": "conom",
  "1283": " import",
  "1284": " comple",
  "1285": " ide",
  "1286": "riend",
  "1287": " recent",
  "1288": "aim",
  "1289": "line",
  "1290": "ably",
  "1291": " proble",
  "1292": " tri",
  "1293": " let",
  "1294": " country",
  "1295": "ways",
  "1296": "ished",
  "1297": "But",
  "1298": " stand",
  "1299": " el",
  "1300": "arn",
  "1301": " better",
  "1302": "ained",
  "1303": " gl",
  "1304": "ead",
  "1305": " interest",
  "1306": "tt",
  "1307": "ration",
  "1308": " less",
  "1309": "oney",
  "1310": "ract",
  "1311": " mov",
  "1312": "ling",
  "1313": " Ind",
  "1314": " partic",
  "1315": " attack",
  "1316": " little",
  "1317": " bro",
  "1318": "app",
  "1319": " appro",
  "1320": " beh",
  "1321": " mil",
  "1322": " called",
  "1323": " didn",
  "1324": " turn",
  "1325": " rest",
  "1326": " dr",
  "1327": " case",
  "1328": "ised",
  "1329": "ains",
  "1330": "ode",
  "1331": " pop",
  "1332": " move",
  "1333": "rem",
  "1334": " effect",
  "1335": " pay",
  "1336": "ajor",
  "1337": " Z",
  "1338": " full",
  "1339": "ina",
  "1340": " keep",
  "1341": " left",
  "1342": " prev",
  "1343": " ann",
  "1344": " serv",
  "1345": " news",
  "1346": "ency",
  "1347": " conc",
  "1348": "10",
  "1349": " program",
  "1350": "uro",
  "1351": "ann",
  "1352": " There",
  "1353": "ering",
  "1354": "ature",
  "1355": " --",
  "1356": " 12",
  "1357": " test",
  "1358": "inal",
  "1359": " main",
  "1360": "leg",
  "1361": " using",
  "1362": "ology",
  "1363": " win",
  "1364": " form",
  "1365": "He",
  "1366": " pos",
  "1367": " val",
  "1368": " American",
  "1369": " level",
  "1370": " fun",
  "1371": "be",
  "1372": "ott",
  "1373": " school",
  "1374": " econom",
  "1375": "ertain",
  "1376": "iving",
  "1377": " So",
  "1378": " police",
  "1379": "arge",
  "1380": " women",
  "1381": "ined",
  "1382": "ploy",
  "1383": "iver",
  "1384": " =",
  "1385": "'re",
  "1386": " list",
  "1387": " book",
  "1388": " small",
  "1389": " eas",
  "1390": "uck",
  "1391": "ready",
  "1392": " data",
  "1393": " United",
  "1394": " Ph",
  "1395": "rap",
  "1396": "ohn",
  "1397": "used",
  "1398": " hist",
  "1399": " Q",
  "1400": " rece",
  "1401": " current",
  "1402": " health",
  "1403": "ird",
  "1404": "ided",
  "1405": "orth",
  "1406": " process",
  "1407": "//",
  "1408": " bre",
  "1409": " change",
  "1410": " company",
  "1411": " president",
  "1412": " 18",
  "1413": " techn",
  "1414": "ger",
  "1415": "reen",
  "1416": "ruct",
  "1417": " business",
  "1418": "ron",
  "1419": " always",
  "1420": " why",
  "1421": " sol",
  "1422": "ians",
  "1423": " mat",
  "1424": " thing",
  "1425": " past",
  "1426": " How",
  "1427": " already",
  "1428": "aining",
  "1429": " able",
  "1430": " prom",
  "1431": "ards",
  "1432": "stand",
  "1433": "wit",
  "1434": " later",
  "1435": " project",
  "1436": " rese",
  "1437": " organ",
  "1438": " chang",
  "1439": "aign",
  "1440": " prof",
  "1441": " unt",
  "1442": "ases",
  "1443": " story",
  "1444": " dri",
  "1445": " job",
  "1446": "aff",
  "1447": " expect",
  "1448": " Ob",
  "1449": " Be",
  "1450": " class",
  "1451": " major",
  "1452": "outh",
  "1453": " away",
  "1454": " claim",
  "1455": "urs",
  "1456": " She",
  "1457": " official",
  "1458": " money",
  "1459": "ample",
  "1460": "ural",
  "1461": " free",
  "1462": " ty",
  "1463": " vis",
  "1464": " talk",
  "1465": "ured",
  "1466": " information",
  "1467": "iven",
  "1468": "ury",
  "1469": " cost",
  "1470": "here",
  "1471": " pat",
  "1472": " ele",
  "1473": " design",
  "1474": "iversity",
  "1475": "side",
  "1476": " old",
  "1477": "ption",
  "1478": " view",
  "1479": "acy",
  "1480": " kill",
  "1481": "to",
  "1482": " city",
  "1483": " stre",
  "1484": "ley",
  "1485": " doesn",
  "1486": " important",
  "1487": " least",
  "1488": "ending",
  "1489": " mar",
  "1490": "sc",
  "1491": " aff",
  "1492": " happen",
  "1493": " came",
  "1494": " men",
  "1495": " est",
  "1496": "50",
  "1497": "rist",
  "1498": " campaign",
  "1499": " Ad",
  "1500": "els",
  "1501": " days",
  "1502": "uthor",
  "1503": " oper",
  "1504": " must",
  "1505": "ides",
  "1506": "alf",
  "1507": "urity",
  "1508": "ccess",
  "1509": "resident",
  "1510": " grow",
  "1511": " sk",
  "1512": "ney",
  "1513": " family",
  "1514": " hop",
  "1515": " friend",
  "1516": "eral",
  "1517": " tax",
  "1518": "ted",
  "1519": " record",
  "1520": " making",
  "1521": " tell",
  "1522": " enough",
  "1523": "ission",
  "1524": "St",
  "1525": "ior",
  "1526": " Mar",
  "1527": " var",
  "1528": " kind",
  "1529": "...",
  "1530": " Sp",
  "1531": " const",
  "1532": "ider",
  "1533": " elect",
  "1534": "ising",
  "1535": " vide",
  "1536": " sit",
  "1537": "ality",
  "1538": " Go",
  "1539": " large",
  "1540": "pped",
  "1541": "oad",
  "1542": "arent",
  "1543": "bs",
  "1544": "ush",
  "1545": " polic",
  "1546": " took",
  "1547": " name",
  "1548": " deal",
  "1549": "ified",
  "1550": "ued",
  "1551": " John",
  "1552": "augh",
  "1553": " political",
  "1554": " Republic",
  "1555": " es",
  "1556": "ox",
  "1557": " air",
  "1558": "ror",
  "1559": "ived",
  "1560": "19",
  "1561": " edit",
  "1562": "work",
  "1563": " until",
  "1564": "As",
  "1565": " del",
  "1566": "ane",
  "1567": "enn",
  "1568": "by",
  "1569": " ve",
  "1570": "ocrat",
  "1571": " games",
  "1572": "ional",
  "1573": " working",
  "1574": "If",
  "1575": " line",
  "1576": "…",
  "1577": "iol",
  "1578": " become",
  "1579": " Can",
  "1580": " according",
  "1581": " deb",
  "1582": "ries",
  "1583": " mean",
  "1584": "ER",
  "1585": "ister",
  "1586": " former",
  "1587": " ever",
  "1588": "ony",
  "1589": " Sc",
  "1590": "ember",
  "1591": " Dem",
  "1592": "aps",
  "1593": " actually",
  "1594": " return",
  "1595": "ator",
  "1596": " often",
  "1597": " bas",
  "1598": " won",
  "1599": "ison",
  "1600": "iqu",
  "1601": "year",
  "1602": " intern",
  "1603": " human",
  "1604": " Pl",
  "1605": " times",
  "1606": "ization",
  "1607": " Mc",
  "1608": " fund",
  "1609": " give",
  "1610": "most",
  "1611": "ware",
  "1612": " fore",
  "1613": "eng",
  "1614": " players",
  "1615": "aring",
  "1616": " All",
  "1617": " sing",
  "1618": "icle",
  "1619": " sever",
  "1620": "wh",
  "1621": "rop",
  "1622": "ither",
  "1623": "sh",
  "1624": " Comm",
  "1625": " order",
  "1626": " Russ",
  "1627": "gin",
  "1628": " word",
  "1629": " media",
  "1630": "ague",
  "1631": "ium",
  "1632": " seen",
  "1633": "ball",
  "1634": " doing",
  "1635": "uture",
  "1636": "for",
  "1637": " charac",
  "1638": " bit",
  "1639": " May",
  "1640": "----",
  "1641": " At",
  "1642": "There",
  "1643": "raft",
  "1644": " la",
  "1645": " dev",
  "1646": " social",
  "1647": " appear",
  "1648": " market",
  "1649": " night",
  "1650": " young",
  "1651": "oint",
  "1652": " children",
  "1653": " crit",
  "1654": " ,",
  "1655": " control",
  "1656": " having",
  "1657": " ra",
  "1658": " President",
  "1659": " early",
  "1660": " fac",
  "1661": "ched",
  "1662": " sure",
  "1663": "idd",
  "1664": " went",
  "1665": " perform",
  "1666": " five",
  "1667": "ories",
  "1668": " several",
  "1669": " today",
  "1670": "iam",
  "1671": "aken",
  "1672": " York",
  "1673": " Or",
  "1674": "iber",
  "1675": "iously",
  "1676": "br",
  "1677": " Sy",
  "1678": " Con",
  "1679": " press",
  "1680": " event",
  "1681": "ands",
  "1682": " 15",
  "1683": "let",
  "1684": " arg",
  "1685": " Euro",
  "1686": " avail",
  "1687": " States",
  "1688": " pot",
  "1689": "11",
  "1690": " occ",
  "1691": " success",
  "1692": " prop",
  "1693": "vert",
  "1694": " whether",
  "1695": "une",
  "1696": " example",
  "1697": " 199",
  "1698": "artment",
  "1699": "idence",
  "1700": " along",
  "1701": " question",
  "1702": "ats",
  "1703": " No",
  "1704": " likely",
  "1705": "uff",
  "1706": " milit",
  "1707": "inc",
  "1708": " equ",
  "1709": " invol",
  "1710": " months",
  "1711": " water",
  "1712": " members",
  "1713": "mber",
  "1714": "ster",
  "1715": "ots",
  "1716": " ben",
  "1717": " sex",
  "1718": " short",
  "1719": " fight",
  "1720": " within",
  "1721": " vers",
  "1722": " fail",
  "1723": " done",
  "1724": " certain",
  "1725": " among",
  "1726": "And",
  "1727": " hour",
  "1728": " meet",
  "1729": "empt",
  "1730": " once",
  "1731": "ivid",
  "1732": "ially",
  "1733": " Br",
  "1734": "back",
  "1735": "ubl",
  "1736": " ant",
  "1737": " understand",
  "1738": " Col",
  "1739": "ortun",
  "1740": " thought",
  "1741": " side",
  "1742": " desc",
  "1743": "iting",
  "1744": "urch",
  "1745": " means",
  "1746": "nect",
  "1747": "lf",
  "1748": " priv",
  "1749": " future",
  "1750": " across",
  "1751": " eng",
  "1752": " viol",
  "1753": " local",
  "1754": "ential",
  "1755": " course",
  "1756": "ggest",
  "1757": " product",
  "1758": " 11",
  "1759": "rew",
  "1760": " #",
  "1761": " investig",
  "1762": "ones",
  "1763": " hold",
  "1764": "ulation",
  "1765": "ler",
  "1766": "verage",
  "1767": "ended",
  "1768": " cho",
  "1769": " Obama",
  "1770": " known",
  "1771": " Mr",
  "1772": " reason",
  "1773": "gress",
  "1774": "ourn",
  "1775": "imate",
  "1776": " writ",
  "1777": " &",
  "1778": "my",
  "1779": " On",
  "1780": " activ",
  "1781": "book",
  "1782": " possible",
  "1783": " protect",
  "1784": " State",
  "1785": " suggest",
  "1786": "itive",
  "1787": " available",
  "1788": " problem",
  "1789": "�",
  "1790": "oci",
  "1791": " When",
  "1792": " non",
  "1793": "aged",
  "1794": " community",
  "1795": " yet",
  "1796": " asked",
  "1797": " light",
  "1798": " House",
  "1799": " video",
  "1800": " 2016",
  "1801": " orig",
  "1802": " makes",
  "1803": " author",
  "1804": "ald",
  "1805": "arm",
  "1806": " creat",
  "1807": " getting",
  "1808": " cut",
  "1809": "ensive",
  "1810": " believe",
  "1811": " cond",
  "1812": "not",
  "1813": "ederal",
  "1814": " prob",
  "1815": " given",
  "1816": " Europe",
  "1817": " 30",
  "1818": " reported",
  "1819": "urther",
  "1820": " others",
  "1821": "ober",
  "1822": "itions",
  "1823": "iety",
  "1824": " Christ",
  "1825": " net",
  "1826": " land",
  "1827": " ca",
  "1828": "ene",
  "1829": " Cent",
  "1830": "orld",
  "1831": "You",
  "1832": " Co",
  "1833": "ashing",
  "1834": " Fl",
  "1835": " mus",
  "1836": " i",
  "1837": "uly",
  "1838": "por",
  "1839": " announ",
  "1840": " Te",
  "1841": " strong",
  "1842": " ]",
  "1843": " death",
  "1844": "ances",
  "1845": " lim",
  "1846": " national",
  "1847": "iron",
  "1848": "12",
  "1849": " Democrat",
  "1850": " started",
  "1851": " 2014",
  "1852": " ago",
  "1853": " X",
  "1854": " ident",
  "1855": " sent",
  "1856": "aster",
  "1857": "ored",
  "1858": "rest",
  "1859": " half",
  "1860": " Am",
  "1861": "'ve",
  "1862": " employ",
  "1863": " 2015",
  "1864": " issue",
  "1865": " par",
  "1866": " mom",
  "1867": " hig",
  "1868": " close",
  "1869": " trying",
  "1870": "30",
  "1871": " access",
  "1872": " following",
  "1873": "hers",
  "1874": " University",
  "1875": " love",
  "1876": " history",
  "1877": " party",
  "1878": "AT",
  "1879": "orts",
  "1880": "ilar",
  "1881": " based",
  "1882": " saf",
  "1883": " comes",
  "1884": " Sen",
  "1885": " America",
  "1886": ".,",
  "1887": " sour",
  "1888": " Min",
  "1889": "For",
  "1890": "ination",
  "1891": "selves",
  "1892": " almost",
  "1893": " foc",
  "1894": "–",
  "1895": " series",
  "1896": " indust",
  "1897": " low",
  "1898": "resent",
  "1899": "ividual",
  "1900": "ument",
  "1901": " toget",
  "1902": " together",
  "1903": " idea",
  "1904": "use",
  "1905": "ability",
  "1906": "itional",
  "1907": " looking",
  "1908": " 16",
  "1909": " �",
  "1910": " account",
  "1911": "ograp",
  "1912": " six",
  "1913": " One",
  "1914": "utes",
  "1915": "of",
  "1916": "though",
  "1917": "ream",
  "1918": " added",
  "1919": "ales",
  "1920": " experience",
  "1921": "rict",
  "1922": " isn",
  "1923": " impro",
  "1924": " anything",
  "1925": "erence",
  "1926": "ails",
  "1927": "ev",
  "1928": "ief",
  "1929": "ote",
  "1930": " saying",
  "1931": "ring",
  "1932": "ustom",
  "1933": " clear",
  "1934": "ien",
  "1935": "witter",
  "1936": "aper",
  "1937": "IN",
  "1938": "eb",
  "1939": " er",
  "1940": " trad",
  "1941": " mor",
  "1942": "reed",
  "1943": "unch",
  "1944": "pro",
  "1945": " Af",
  "1946": "irc",
  "1947": " fav",
  "1948": "ged",
  "1949": " Pr",
  "1950": "sy",
  "1951": " anal",
  "1952": "cer",
  "1953": "aid",
  "1954": " area",
  "1955": " rul",
  "1956": " pract",
  "1957": "minist",
  "1958": "15",
  "1959": " complete",
  "1960": " /",
  "1961": " 14",
  "1962": "rown",
  "1963": " miss",
  "1964": " phot",
  "1965": " What",
  "1966": " face",
  "1967": "'m",
  "1968": " live",
  "1969": " present",
  "1970": "ris",
  "1971": " near",
  "1972": " court",
  "1973": "af",
  "1974": " Ex",
  "1975": "play",
  "1976": "raw",
  "1977": " Eng",
  "1978": " individual",
  "1979": " compet",
  "1980": " vict",
  "1981": " film",
  "1982": " bill",
  "1983": " cult",
  "1984": "ows",
  "1985": " Canad",
  "1986": " single",
  "1987": "wards",
  "1988": " ris",
  "1989": " taken",
  "1990": "osp",
  "1991": "rug",
  "1992": " threat",
  "1993": " black",
  "1994": " Har",
  "1995": " mind",
  "1996": "go",
  "1997": " bad",
  "1998": " try",
  "1999": "ai",
  "2000": " rather",
  "2001": " entire",
  "2002": " mult",
  "2003": " Pol",
  "2004": " aut",
  "2005": " City",
  "2006": " colle",
  "2007": "cially",
  "2008": " proper",
  "2009": " War",
  "2010": " behind",
  "2011": " z",
  "2012": " 17",
  "2013": " military",
  "2014": " wanted",
  "2015": "erman",
  "2016": "uge",
  "2017": " Brit",
  "2018": " publ",
  "2019": "On",
  "2020": " concern",
  "2021": "What",
  "2022": "ids",
  "2023": " study",
  "2024": " Im",
  "2025": " quick",
  "2026": "inton",
  "2027": " North",
  "2028": "ators",
  "2029": " tot",
  "2030": " sum",
  "2031": " Cal",
  "2032": "par",
  "2033": " redu",
  "2034": " discuss",
  "2035": "atic",
  "2036": "nes",
  "2037": "off",
  "2038": " security",
  "2039": " fall",
  "2040": " Don",
  "2041": "ON",
  "2042": " Gr",
  "2043": "rael",
  "2044": " player",
  "2045": " mess",
  "2046": " special",
  "2047": " policy",
  "2048": " foot",
  "2049": "An",
  "2050": " Sec",
  "2051": " points",
  "2052": " pret",
  "2053": " bring",
  "2054": "elt",
  "2055": "arter",
  "2056": " research",
  "2057": "When",
  "2058": " 13",
  "2059": " probably",
  "2060": " attempt",
  "2061": " To",
  "2062": " comb",
  "2063": "ashington",
  "2064": "ply",
  "2065": "lling",
  "2066": " pick",
  "2067": " Dep",
  "2068": " compan",
  "2069": " house",
  "2070": "ches",
  "2071": "rote",
  "2072": " someone",
  "2073": "lish",
  "2074": " taking",
  "2075": " key",
  "2076": " cou",
  "2077": "icult",
  "2078": "RE",
  "2079": "irl",
  "2080": " field",
  "2081": " Man",
  "2082": "16",
  "2083": " wa",
  "2084": " benef",
  "2085": "reme",
  "2086": "over",
  "2087": " imm",
  "2088": "AN",
  "2089": " Aust",
  "2090": " body",
  "2091": "ttp",
  "2092": "ify",
  "2093": " targ",
  "2094": " connect",
  "2095": " conv",
  "2096": " similar",
  "2097": " nothing",
  "2098": " coun",
  "2099": " front",
  "2100": "dd",
  "2101": " coming",
  "2102": " rights",
  "2103": "cing",
  "2104": "viron",
  "2105": " meas",
  "2106": " food",
  "2107": " jo",
  "2108": " signific",
  "2109": "ming",
  "2110": ".)",
  "2111": "So",
  "2112": " further",
  "2113": " else",
  "2114": " describ",
  "2115": " World",
  "2116": " space",
  "2117": " sw",
  "2118": " National",
  "2119": " lab",
  "2120": " ey",
  "2121": "IS",
  "2122": " either",
  "2123": " learn",
  "2124": " exist",
  "2125": " service",
  "2126": "ried",
  "2127": "yn",
  "2128": "�",
  "2129": "amed",
  "2130": " wrote",
  "2131": " decision",
  "2132": " however",
  "2133": "arth",
  "2134": "ww",
  "2135": "ault",
  "2136": "aces",
  "2137": " begin",
  "2138": "ully",
  "2139": "ana",
  "2140": " watch",
  "2141": "asing",
  "2142": "itted",
  "2143": " repl",
  "2144": " create",
  "2145": "That",
  "2146": "head",
  "2147": " 2013",
  "2148": "ung",
  "2149": " third",
  "2150": " With",
  "2151": " whole",
  "2152": " issues",
  "2153": "ively",
  "2154": "://",
  "2155": " ener",
  "2156": " |",
  "2157": " Washington",
  "2158": " relations",
  "2159": " sus",
  "2160": " +",
  "2161": " hit",
  "2162": "14",
  "2163": "olution",
  "2164": " enc",
  "2165": " chall",
  "2166": " released",
  "2167": " feat",
  "2168": " leaders",
  "2169": "oon",
  "2170": " mass",
  "2171": " step",
  "2172": " compl",
  "2173": " room",
  "2174": "pping",
  "2175": "rodu",
  "2176": " tra",
  "2177": " companies",
  "2178": " Gu",
  "2179": " seems",
  "2180": " doc",
  "2181": " stop",
  "2182": " Clinton",
  "2183": " 25",
  "2184": " Dav",
  "2185": "ently",
  "2186": "pite",
  "2187": " due",
  "2188": " opt",
  "2189": "aul",
  "2190": " dam",
  "2191": "ape",
  "2192": "lam",
  "2193": " :",
  "2194": " custom",
  "2195": " federal",
  "2196": " cand",
  "2197": " fire",
  "2198": " fig",
  "2199": " super",
  "2200": " Israel",
  "2201": " everything",
  "2202": " outside",
  "2203": " began",
  "2204": " Jan",
  "2205": " dou",
  "2206": " Inst",
  "2207": " final",
  "2208": " However",
  "2209": " character",
  "2210": "ran",
  "2211": "now",
  "2212": "amer",
  "2213": " break",
  "2214": " development",
  "2215": " init",
  "2216": " self",
  "2217": "umb",
  "2218": "reg",
  "2219": "eal",
  "2220": " amount",
  "2221": "arlier",
  "2222": " matter",
  "2223": "sw",
  "2224": " Bar",
  "2225": "ades",
  "2226": " Part",
  "2227": "mb",
  "2228": " itself",
  "2229": " position",
  "2230": " tre",
  "2231": " general",
  "2232": " stri",
  "2233": " gun",
  "2234": "ibility",
  "2235": " South",
  "2236": " Ge",
  "2237": "lement",
  "2238": " treat",
  "2239": " continue",
  "2240": "pecially",
  "2241": "anks",
  "2242": "ivil",
  "2243": " states",
  "2244": "ender",
  "2245": " Med",
  "2246": "____",
  "2247": "lu",
  "2248": " exec",
  "2249": "AR",
  "2250": "uation",
  "2251": " sound",
  "2252": "iday",
  "2253": " statement",
  "2254": " became",
  "2255": " 2012",
  "2256": "ograph",
  "2257": " himself",
  "2258": "lim",
  "2259": " role",
  "2260": "ili",
  "2261": "attle",
  "2262": " neg",
  "2263": " Intern",
  "2264": " stat",
  "2265": " students",
  "2266": "sec",
  "2267": "ery",
  "2268": " Su",
  "2269": " officials",
  "2270": " 2017",
  "2271": " wasn",
  "2272": "vironment",
  "2273": " themselves",
  "2274": " office",
  "2275": "ilt",
  "2276": " ball",
  "2277": " inj",
  "2278": "like",
  "2279": "�",
  "2280": "acebook",
  "2281": " provide",
  "2282": " woman",
  "2283": " agree",
  "2284": " action",
  "2285": "Ch",
  "2286": "ogn",
  "2287": " larg",
  "2288": " significant",
  "2289": " running",
  "2290": "obal",
  "2291": "BC",
  "2292": " difficult",
  "2293": " specific",
  "2294": " profess",
  "2295": " hours",
  "2296": " played",
  "2297": " deep",
  "2298": " capt",
  "2299": " phys",
  "2300": " building",
  "2301": " administ",
  "2302": "18",
  "2303": "aced",
  "2304": " ground",
  "2305": " lat",
  "2306": " true",
  "2307": "irt",
  "2308": " simply",
  "2309": " interview",
  "2310": " playing",
  "2311": " cop",
  "2312": " charg",
  "2313": " represent",
  "2314": " 100",
  "2315": " dom",
  "2316": "13",
  "2317": " Just",
  "2318": " saw",
  "2319": " above",
  "2320": "ournal",
  "2321": " common",
  "2322": "body",
  "2323": "right",
  "2324": " below",
  "2325": " App",
  "2326": " Ed",
  "2327": " ap",
  "2328": " mag",
  "2329": " countries",
  "2330": "'ll",
  "2331": "oid",
  "2332": "iddle",
  "2333": " Res",
  "2334": " energy",
  "2335": " evidence",
  "2336": "atur",
  "2337": "ask",
  "2338": "eks",
  "2339": "angu",
  "2340": " drug",
  "2341": " sense",
  "2342": " shows",
  "2343": " respons",
  "2344": " groups",
  "2345": "ique",
  "2346": " friends",
  "2347": "iod",
  "2348": " red",
  "2349": " white",
  "2350": " pretty",
  "2351": " needs",
  "2352": "time",
  "2353": " lost",
  "2354": " exc",
  "2355": " everyone",
  "2356": "é",
  "2357": " Ab",
  "2358": " 50",
  "2359": " track",
  "2360": " Ass",
  "2361": " tem",
  "2362": "ij",
  "2363": " dest",
  "2364": " version",
  "2365": " typ",
  "2366": " China",
  "2367": " bar",
  "2368": " address",
  "2369": " His",
  "2370": " Mus",
  "2371": "ift",
  "2372": " )",
  "2373": "ser",
  "2374": " value",
  "2375": "ached",
  "2376": "17",
  "2377": " recently",
  "2378": " needed",
  "2379": " pain",
  "2380": " rad",
  "2381": "yle",
  "2382": " forward",
  "2383": " Car",
  "2384": " 198",
  "2385": " West",
  "2386": " changes",
  "2387": " candid",
  "2388": " music",
  "2389": " hom",
  "2390": " di",
  "2391": " release",
  "2392": "ogle",
  "2393": " ep",
  "2394": "omm",
  "2395": "ccording",
  "2396": " include",
  "2397": " gen",
  "2398": " alleg",
  "2399": "ribut",
  "2400": "oke",
  "2401": " quite",
  "2402": " late",
  "2403": "isc",
  "2404": " tit",
  "2405": " industry",
  "2406": " election",
  "2407": "istic",
  "2408": " circ",
  "2409": "ned",
  "2410": " mot",
  "2411": " online",
  "2412": " White",
  "2413": " instead",
  "2414": " After",
  "2415": " German",
  "2416": " site",
  "2417": "oring",
  "2418": " weeks",
  "2419": "arc",
  "2420": "ST",
  "2421": "epend",
  "2422": " deter",
  "2423": " anim",
  "2424": " moment",
  "2425": "osing",
  "2426": " accept",
  "2427": "ental",
  "2428": " host",
  "2429": " jud",
  "2430": " legal",
  "2431": "ights",
  "2432": " shoot",
  "2433": "me",
  "2434": " opportun",
  "2435": "eed",
  "2436": " vote",
  "2437": " Twitter",
  "2438": "itting",
  "2439": "ients",
  "2440": " abs",
  "2441": " ple",
  "2442": "Al",
  "2443": " especially",
  "2444": "where",
  "2445": " wrong",
  "2446": " relig",
  "2447": " parent",
  "2448": " goal",
  "2449": "How",
  "2450": " pie",
  "2451": "bo",
  "2452": " suff",
  "2453": " decl",
  "2454": "ival",
  "2455": " webs",
  "2456": " My",
  "2457": " Not",
  "2458": " soon",
  "2459": "apt",
  "2460": "ele",
  "2461": " 24",
  "2462": " object",
  "2463": " pred",
  "2464": " Cong",
  "2465": " economic",
  "2466": " longer",
  "2467": " Republican",
  "2468": " higher",
  "2469": "medi",
  "2470": " hope",
  "2471": " block",
  "2472": "ularly",
  "2473": "ager",
  "2474": " educ",
  "2475": "ees",
  "2476": " Will",
  "2477": " held",
  "2478": "ham",
  "2479": " walk",
  "2480": "oe",
  "2481": " period",
  "2482": "**",
  "2483": " Aug",
  "2484": "irm",
  "2485": " Dr",
  "2486": " billion",
  "2487": " focus",
  "2488": "oph",
  "2489": "They",
  "2490": " technology",
  "2491": " consum",
  "2492": " News",
  "2493": "asons",
  "2494": " review",
  "2495": "lt",
  "2496": " code",
  "2497": " laws",
  "2498": "ript",
  "2499": " Sept",
  "2500": " works",
  "2501": " stay",
  "2502": " share",
  "2503": "cial",
  "2504": " Department",
  "2505": " Oct",
  "2506": "onse",
  "2507": " target",
  "2508": "ray",
  "2509": " Mich",
  "2510": " check",
  "2511": "iding",
  "2512": " These",
  "2513": " consider",
  "2514": " lo",
  "2515": " March",
  "2516": "duct",
  "2517": "hod",
  "2518": " led",
  "2519": " stru",
  "2520": " personal",
  "2521": "urd",
  "2522": "cle",
  "2523": " hy",
  "2524": "overed",
  "2525": "ole",
  "2526": " reve",
  "2527": " results",
  "2528": " anyone",
  "2529": " vol",
  "2530": " Austral",
  "2531": " Ste",
  "2532": " age",
  "2533": "ude",
  "2534": " dead",
  "2535": " words",
  "2536": " minutes",
  "2537": " sold",
  "2538": " potential",
  "2539": " den",
  "2540": "cil",
  "2541": " earlier",
  "2542": " contract",
  "2543": " wind",
  "2544": "key",
  "2545": "hern",
  "2546": "Ad",
  "2547": "rel",
  "2548": " favor",
  "2549": " base",
  "2550": "ateg",
  "2551": " total",
  "2552": " July",
  "2553": " services",
  "2554": " Sm",
  "2555": " rate",
  "2556": " applic",
  "2557": "pril",
  "2558": "�",
  "2559": " prim",
  "2560": " risk",
  "2561": " �",
  "2562": "alt",
  "2563": " necess",
  "2564": "aging",
  "2565": "action",
  "2566": " June",
  "2567": "hel",
  "2568": " force",
  "2569": "ilities",
  "2570": " popular",
  "2571": " impact",
  "2572": " Facebook",
  "2573": " scient",
  "2574": "uary",
  "2575": "isl",
  "2576": " En",
  "2577": " article",
  "2578": "haps",
  "2579": " speak",
  "2580": " rev",
  "2581": "AS",
  "2582": " Mond",
  "2583": "anger",
  "2584": "ourt",
  "2585": " ways",
  "2586": " created",
  "2587": " Red",
  "2588": "iter",
  "2589": "ends",
  "2590": " <",
  "2591": "uel",
  "2592": " aud",
  "2593": "icro",
  "2594": " surpr",
  "2595": "fect",
  "2596": " problems",
  "2597": " God",
  "2598": "aut",
  "2599": " 2011",
  "2600": " cannot",
  "2601": "EN",
  "2602": " anti",
  "2603": "fer",
  "2604": " upd",
  "2605": " respect",
  "2606": " expected",
  "2607": " coll",
  "2608": " Me",
  "2609": " shot",
  "2610": " answ",
  "2611": "itution",
  "2612": " questions",
  "2613": "25",
  "2614": "iple",
  "2615": " club",
  "2616": " Pe",
  "2617": "Ph",
  "2618": " private",
  "2619": "apan",
  "2620": " increase",
  "2621": " express",
  "2622": " involved",
  "2623": " Congress",
  "2624": "val",
  "2625": "ples",
  "2626": "itten",
  "2627": " cred",
  "2628": "itiz",
  "2629": " received",
  "2630": "reet",
  "2631": " function",
  "2632": " easy",
  "2633": " Syri",
  "2634": "ancial",
  "2635": " environment",
  "2636": " comment",
  "2637": "oto",
  "2638": "cast",
  "2639": "ctor",
  "2640": " content",
  "2641": " subject",
  "2642": " comput",
  "2643": " mater",
  "2644": "aving",
  "2645": " langu",
  "2646": "ams",
  "2647": " Hill",
  "2648": " port",
  "2649": " Monday",
  "2650": "OR",
  "2651": " price",
  "2652": "urg",
  "2653": " announced",
  "2654": " pack",
  "2655": " tou",
  "2656": " relationship",
  "2657": "che",
  "2658": " users",
  "2659": " exact",
  "2660": " broad",
  "2661": "atives",
  "2662": " heart",
  "2663": " staff",
  "2664": " Do",
  "2665": " civil",
  "2666": "put",
  "2667": " sen",
  "2668": " nearly",
  "2669": "ittee",
  "2670": " San",
  "2671": " response",
  "2672": " original",
  "2673": " Calif",
  "2674": "ule",
  "2675": " execut",
  "2676": " reports",
  "2677": "lled",
  "2678": "atural",
  "2679": " living",
  "2680": " cases",
  "2681": " Friday",
  "2682": " Count",
  "2683": "lex",
  "2684": "ires",
  "2685": " April",
  "2686": " arrest",
  "2687": "ites",
  "2688": " mother",
  "2689": "ips",
  "2690": "uesday",
  "2691": " cal",
  "2692": "ops",
  "2693": " pur",
  "2694": "hood",
  "2695": "onst",
  "2696": " collect",
  "2697": " inside",
  "2698": " oil",
  "2699": "okes",
  "2700": " terms",
  "2701": " worked",
  "2702": "ests",
  "2703": " Wed",
  "2704": " store",
  "2705": " TV",
  "2706": " becom",
  "2707": " nation",
  "2708": " Pal",
  "2709": " type",
  "2710": " div",
  "2711": " {",
  "2712": "mon",
  "2713": " squ",
  "2714": "mp",
  "2715": "ael",
  "2716": "At",
  "2717": "rought",
  "2718": " respond",
  "2719": "eter",
  "2720": "ellig",
  "2721": " fans",
  "2722": " girl",
  "2723": "60",
  "2724": " round",
  "2725": "ought",
  "2726": " average",
  "2727": " Now",
  "2728": "org",
  "2729": " immedi",
  "2730": " 197",
  "2731": " soft",
  "2732": " teams",
  "2733": " lack",
  "2734": "omb",
  "2735": " Sund",
  "2736": " Russia",
  "2737": " published",
  "2738": "joy",
  "2739": " international",
  "2740": " killed",
  "2741": " takes",
  "2742": "\".",
  "2743": "oor",
  "2744": "bit",
  "2745": " worth",
  "2746": "ext",
  "2747": " Americans",
  "2748": "izing",
  "2749": " Tuesday",
  "2750": " 40",
  "2751": " estab",
  "2752": "istan",
  "2753": "ctions",
  "2754": "To",
  "2755": " 2010",
  "2756": " network",
  "2757": " Islam",
  "2758": " terror",
  "2759": " Afric",
  "2760": " workers",
  "2761": " ability",
  "2762": " defin",
  "2763": "nesday",
  "2764": " chance",
  "2765": " gave",
  "2766": " cy",
  "2767": " associ",
  "2768": " arri",
  "2769": "vertise",
  "2770": "na",
  "2771": " While",
  "2772": " adm",
  "2773": " British",
  "2774": " Ang",
  "2775": " Google",
  "2776": " director",
  "2777": " career",
  "2778": " cell",
  "2779": " whose",
  "2780": " mid",
  "2781": " decided",
  "2782": " leave",
  "2783": "rain",
  "2784": "ises",
  "2785": " numbers",
  "2786": "ornia",
  "2787": "icated",
  "2788": "oved",
  "2789": " weap",
  "2790": " fem",
  "2791": " happened",
  "2792": "ological",
  "2793": "clus",
  "2794": " emer",
  "2795": "ners",
  "2796": " buy",
  "2797": "based",
  "2798": " capital",
  "2799": " Japan",
  "2800": " affect",
  "2801": "ky",
  "2802": " model",
  "2803": " source",
  "2804": "aily",
  "2805": " et",
  "2806": " @",
  "2807": " goes",
  "2808": " road",
  "2809": " Nove",
  "2810": "unt",
  "2811": " lives",
  "2812": " Some",
  "2813": " Act",
  "2814": "One",
  "2815": " log",
  "2816": " Off",
  "2817": " influ",
  "2818": " turned",
  "2819": " Per",
  "2820": " tal",
  "2821": " plans",
  "2822": " match",
  "2823": "bl",
  "2824": "aur",
  "2825": " currently",
  "2826": "ened",
  "2827": " recogn",
  "2828": " global",
  "2829": " ste",
  "2830": "ursday",
  "2831": " approach",
  "2832": " Wednesday",
  "2833": " phone",
  "2834": " material",
  "2835": " require",
  "2836": " 22",
  "2837": "osition",
  "2838": " foreign",
  "2839": " By",
  "2840": " David",
  "2841": " September",
  "2842": " El",
  "2843": " offer",
  "2844": " situation",
  "2845": " administration",
  "2846": " thous",
  "2847": " events",
  "2848": "order",
  "2849": " Ag",
  "2850": " mis",
  "2851": " Cor",
  "2852": "bor",
  "2853": "fully",
  "2854": " Sch",
  "2855": " regard",
  "2856": "eg",
  "2857": "ills",
  "2858": " introdu",
  "2859": " January",
  "2860": " Bro",
  "2861": " couple",
  "2862": "ese",
  "2863": "oud",
  "2864": " hon",
  "2865": "ino",
  "2866": " Gl",
  "2867": " lower",
  "2868": " trade",
  "2869": "oo",
  "2870": "ech",
  "2871": " Paul",
  "2872": " August",
  "2873": " loss",
  "2874": " Court",
  "2875": " felt",
  "2876": " pict",
  "2877": "ume",
  "2878": "set",
  "2879": " boy",
  "2880": " improve",
  "2881": " member",
  "2882": " ill",
  "2883": " 21",
  "2884": "lev",
  "2885": " method",
  "2886": " bank",
  "2887": " huge",
  "2888": " repe",
  "2889": " pull",
  "2890": " website",
  "2891": " race",
  "2892": " tool",
  "2893": "AC",
  "2894": " father",
  "2895": " Sunday",
  "2896": " California",
  "2897": " secret",
  "2898": " struct",
  "2899": " fre",
  "2900": "load",
  "2901": " page",
  "2902": "rect",
  "2903": " quickly",
  "2904": " legisl",
  "2905": "ening",
  "2906": " wide",
  "2907": " simple",
  "2908": " meeting",
  "2909": " heard",
  "2910": " performance",
  "2911": "ety",
  "2912": " knew",
  "2913": " Thursday",
  "2914": "orters",
  "2915": "estern",
  "2916": " financial",
  "2917": " Feb",
  "2918": " dig",
  "2919": " travel",
  "2920": " movement",
  "2921": "ruction",
  "2922": " areas",
  "2923": " tried",
  "2924": " via",
  "2925": " text",
  "2926": " November",
  "2927": " cover",
  "2928": "”.",
  "2929": " pers",
  "2930": "40",
  "2931": " norm",
  "2932": "sych",
  "2933": " ord",
  "2934": "--------",
  "2935": "uses",
  "2936": " reach",
  "2937": " town",
  "2938": " behav",
  "2939": "ma",
  "2940": "atory",
  "2941": " economy",
  "2942": "ging",
  "2943": "aker",
  "2944": " reveal",
  "2945": " poll",
  "2946": " Center",
  "2947": " enjoy",
  "2948": "gest",
  "2949": " production",
  "2950": "Sh",
  "2951": " built",
  "2952": " hands",
  "2953": " allowed",
  "2954": " particip",
  "2955": " included",
  "2956": "ification",
  "2957": "chie",
  "2958": "lin",
  "2959": " fear",
  "2960": ");",
  "2961": " separ",
  "2962": " board",
  "2963": " wants",
  "2964": "'d",
  "2965": "down",
  "2966": " victim",
  "2967": " fell",
  "2968": "iction",
  "2969": " particular",
  "2970": " 23",
  "2971": " email",
  "2972": " visit",
  "2973": " brought",
  "2974": "force",
  "2975": " http",
  "2976": " previous",
  "2977": " Black",
  "2978": "face",
  "2979": " Post",
  "2980": " cause",
  "2981": "urning",
  "2982": " morning",
  "2983": "uk",
  "2984": "ceed",
  "2985": "After",
  "2986": " size",
  "2987": " attention",
  "2988": "\",",
  "2989": "raz",
  "2990": " hot",
  "2991": "idered",
  "2992": " star",
  "2993": "With",
  "2994": " spent",
  "2995": " veh",
  "2996": " latest",
  "2997": " Senate",
  "2998": " ens",
  "2999": "avy",
  "3000": " paper",
  "3001": " mention",
  "3002": " October",
  "3003": "?”",
  "3004": " perfect",
  "3005": "urb",
  "3006": " forces",
  "3007": "ES",
  "3008": "99",
  "3009": "ession",
  "3010": " Sw",
  "3011": " Qu",
  "3012": " Canada",
  "3013": "iant",
  "3014": " neigh",
  "3015": " engine",
  "3016": "uf",
  "3017": " training",
  "3018": "о",
  "3019": "IT",
  "3020": "undred",
  "3021": "ibly",
  "3022": "While",
  "3023": " demand",
  "3024": " Tex",
  "3025": "ences",
  "3026": " 2008",
  "3027": " population",
  "3028": "arily",
  "3029": "ston",
  "3030": "ille",
  "3031": "agement",
  "3032": "alled",
  "3033": " link",
  "3034": " looks",
  "3035": " leader",
  "3036": "iers",
  "3037": " Jew",
  "3038": "fl",
  "3039": "ondon",
  "3040": "ledge",
  "3041": " Par",
  "3042": "cember",
  "3043": "aturday",
  "3044": " levels",
  "3045": " rac",
  "3046": " Russian",
  "3047": "sequ",
  "3048": " bi",
  "3049": " wond",
  "3050": "yond",
  "3051": "het",
  "3052": "hold",
  "3053": " Park",
  "3054": " progress",
  "3055": "icles",
  "3056": "ett",
  "3057": " citiz",
  "3058": " independ",
  "3059": " exam",
  "3060": " European",
  "3061": " gets",
  "3062": " fair",
  "3063": " various",
  "3064": " growth",
  "3065": "ps",
  "3066": " fast",
  "3067": " box",
  "3068": " Times",
  "3069": " coach",
  "3070": " India",
  "3071": "AL",
  "3072": " contact",
  "3073": " talking",
  "3074": " vo",
  "3075": " Cont",
  "3076": " Party",
  "3077": "200",
  "3078": "ecause",
  "3079": "aries",
  "3080": "rim",
  "3081": " bud",
  "3082": " considered",
  "3083": " }",
  "3084": " Her",
  "3085": " search",
  "3086": "idents",
  "3087": " strugg",
  "3088": " sort",
  "3089": " doll",
  "3090": " League",
  "3091": " County",
  "3092": " medical",
  "3093": " und",
  "3094": " image",
  "3095": "....",
  "3096": "ope",
  "3097": "inks",
  "3098": " investigation",
  "3099": " hor",
  "3100": " addition",
  "3101": "uit",
  "3102": "ground",
  "3103": "ED",
  "3104": " parents",
  "3105": " language",
  "3106": " sett",
  "3107": " IS",
  "3108": " sens",
  "3109": " rules",
  "3110": "Tr",
  "3111": "vent",
  "3112": "ico",
  "3113": "pir",
  "3114": " prison",
  "3115": "ani",
  "3116": " range",
  "3117": "wo",
  "3118": "atform",
  "3119": " speed",
  "3120": " ess",
  "3121": " Iran",
  "3122": " reb",
  "3123": "field",
  "3124": " Street",
  "3125": "ny",
  "3126": "ysis",
  "3127": " conduct",
  "3128": "uments",
  "3129": "elligence",
  "3130": "omp",
  "3131": " critic",
  "3132": " Kore",
  "3133": "raq",
  "3134": "come",
  "3135": "igr",
  "3136": "unk",
  "3137": "aph",
  "3138": "eared",
  "3139": " features",
  "3140": " son",
  "3141": "zz",
  "3142": "eth",
  "3143": " written",
  "3144": "idge",
  "3145": "IC",
  "3146": " serious",
  "3147": " slow",
  "3148": " Pat",
  "3149": " increasing",
  "3150": " bott",
  "3151": "vey",
  "3152": " Mark",
  "3153": "aming",
  "3154": " liber",
  "3155": " Saturday",
  "3156": " December",
  "3157": " stuff",
  "3158": " sexual",
  "3159": " achie",
  "3160": "ication",
  "3161": " Muslim",
  "3162": "ining",
  "3163": " society",
  "3164": " 28",
  "3165": "ze",
  "3166": " extreme",
  "3167": " prep",
  "3168": " attacks",
  "3169": " seven",
  "3170": "light",
  "3171": " modern",
  "3172": "cies",
  "3173": " song",
  "3174": " jobs",
  "3175": " upon",
  "3176": " eight",
  "3177": " document",
  "3178": "imately",
  "3179": " prevent",
  "3180": "isions",
  "3181": " middle",
  "3182": " spokes",
  "3183": "е",
  "3184": " London",
  "3185": " hear",
  "3186": " guy",
  "3187": " More",
  "3188": " journal",
  "3189": "vertisement",
  "3190": "ida",
  "3191": " systems",
  "3192": " seek",
  "3193": " UK",
  "3194": "abor",
  "3195": " particularly",
  "3196": " stories",
  "3197": "FL",
  "3198": " doub",
  "3199": "Im",
  "3200": " card",
  "3201": "urt",
  "3202": "rench",
  "3203": " hous",
  "3204": " draw",
  "3205": " term",
  "3206": " despite",
  "3207": " opportunity",
  "3208": " extra",
  "3209": " inn",
  "3210": "erc",
  "3211": "oman",
  "3212": " message",
  "3213": " Iraq",
  "3214": "anced",
  "3215": " dro",
  "3216": " required",
  "3217": "ruary",
  "3218": " obv",
  "3219": "OP",
  "3220": "entially",
  "3221": " mach",
  "3222": " defense",
  "3223": " biggest",
  "3224": " summer",
  "3225": "room",
  "3226": "eff",
  "3227": " resour",
  "3228": "­",
  "3229": " sn",
  "3230": " blood",
  "3231": " prior",
  "3232": " regul",
  "3233": " 26",
  "3234": " majority",
  "3235": " costs",
  "3236": "atter",
  "3237": " cross",
  "3238": "icks",
  "3239": " effort",
  "3240": " violence",
  "3241": " Donald",
  "3242": " completely",
  "3243": "ament",
  "3244": " products",
  "3245": " pen",
  "3246": "itch",
  "3247": " quarter",
  "3248": "illed",
  "3249": " table",
  "3250": " carry",
  "3251": " imag",
  "3252": " McC",
  "3253": " hundred",
  "3254": " natural",
  "3255": " aren",
  "3256": " aw",
  "3257": " surv",
  "3258": " culture",
  "3259": " died",
  "3260": "ago",
  "3261": "akers",
  "3262": "aves",
  "3263": " Em",
  "3264": "nces",
  "3265": " East",
  "3266": "rast",
  "3267": " remain",
  "3268": " occur",
  "3269": " interesting",
  "3270": "asc",
  "3271": "She",
  "3272": "lear",
  "3273": "ishing",
  "3274": " reading",
  "3275": " ult",
  "3276": "bed",
  "3277": " histor",
  "3278": " looked",
  "3279": " gas",
  "3280": " Net",
  "3281": " ...",
  "3282": " mob",
  "3283": "reedom",
  "3284": "lying",
  "3285": " certainly",
  "3286": " convers",
  "3287": " showed",
  "3288": " described",
  "3289": " rout",
  "3290": " officers",
  "3291": " Mor",
  "3292": " leading",
  "3293": " answer",
  "3294": " 27",
  "3295": " ones",
  "3296": " exactly",
  "3297": " region",
  "3298": " claims",
  "3299": " paid",
  "3300": "ford",
  "3301": " lay",
  "3302": "aught",
  "3303": "add",
  "3304": " increased",
  "3305": "inally",
  "3306": "aly",
  "3307": " except",
  "3308": " finally",
  "3309": " Int",
  "3310": " quality",
  "3311": " sometimes",
  "3312": " Jack",
  "3313": "uing",
  "3314": " conserv",
  "3315": " changed",
  "3316": "22",
  "3317": " climate",
  "3318": " football",
  "3319": " continued",
  "3320": "oses",
  "3321": "utions",
  "3322": " camer",
  "3323": " Republicans",
  "3324": "ension",
  "3325": " starting",
  "3326": " practice",
  "3327": " Che",
  "3328": " science",
  "3329": " education",
  "3330": " Spe",
  "3331": " crim",
  "3332": " Texas",
  "3333": " experien",
  "3334": " Coun",
  "3335": "ously",
  "3336": "tr",
  "3337": " named",
  "3338": " Sand",
  "3339": " writing",
  "3340": " comments",
  "3341": "orge",
  "3342": "ospital",
  "3343": " write",
  "3344": "ibr",
  "3345": "enge",
  "3346": " growing",
  "3347": " giving",
  "3348": " Ke",
  "3349": " Indian",
  "3350": " wouldn",
  "3351": " standard",
  "3352": "yl",
  "3353": " assist",
  "3354": " tro",
  "3355": " remains",
  "3356": " poor",
  "3357": " Soc",
  "3358": "HE",
  "3359": " 2009",
  "3360": " user",
  "3361": " screen",
  "3362": " £",
  "3363": " failed",
  "3364": "ari",
  "3365": "inese",
  "3366": " Cons",
  "3367": " provided",
  "3368": " *",
  "3369": "arr",
  "3370": " parts",
  "3371": "ports",
  "3372": " path",
  "3373": " danger",
  "3374": "oul",
  "3375": "using",
  "3376": " purch",
  "3377": " thinking",
  "3378": " request",
  "3379": " multiple",
  "3380": "No",
  "3381": " Bill",
  "3382": "iment",
  "3383": " movie",
  "3384": " James",
  "3385": " chief",
  "3386": "tain",
  "3387": " demonst",
  "3388": " unf",
  "3389": "AM",
  "3390": " platform",
  "3391": " effects",
  "3392": "inary",
  "3393": " …",
  "3394": " guys",
  "3395": " Even",
  "3396": " league",
  "3397": "][",
  "3398": "ables",
  "3399": " Democratic",
  "3400": " English",
  "3401": " purp",
  "3402": " February",
  "3403": "oper",
  "3404": "coin",
  "3405": " kids",
  "3406": " damage",
  "3407": " rob",
  "3408": " alone",
  "3409": "ges",
  "3410": " center",
  "3411": "mit",
  "3412": " (@",
  "3413": " cele",
  "3414": " brain",
  "3415": " couldn",
  "3416": " reality",
  "3417": " throughout",
  "3418": "eneral",
  "3419": " details",
  "3420": " ban",
  "3421": " King",
  "3422": "ara",
  "3423": " although",
  "3424": "fort",
  "3425": "23",
  "3426": " thousands",
  "3427": " Mon",
  "3428": "urance",
  "3429": " researc",
  "3430": " directly",
  "3431": " pan",
  "3432": " voters",
  "3433": " file",
  "3434": " includes",
  "3435": " consist",
  "3436": "amb",
  "3437": "rowd",
  "3438": " Michael",
  "3439": " books",
  "3440": " towards",
  "3441": " touch",
  "3442": " Des",
  "3443": "OT",
  "3444": " safe",
  "3445": "24",
  "3446": " additional",
  "3447": " subst",
  "3448": "rs",
  "3449": " ready",
  "3450": " fix",
  "3451": " beyond",
  "3452": "pper",
  "3453": "itness",
  "3454": " usually",
  "3455": " ahead",
  "3456": " Serv",
  "3457": "itute",
  "3458": " passed",
  "3459": " perhaps",
  "3460": "BI",
  "3461": "■",
  "3462": " date",
  "3463": "ampions",
  "3464": " implement",
  "3465": " immediately",
  "3466": " efforts",
  "3467": "ha",
  "3468": " swe",
  "3469": " epis",
  "3470": " avoid",
  "3471": " mill",
  "3472": " dark",
  "3473": "hib",
  "3474": "adem",
  "3475": " counter",
  "3476": " concept",
  "3477": " remember",
  "3478": " item",
  "3479": " recomm",
  "3480": " debate",
  "3481": " calls",
  "3482": " il",
  "3483": " toward",
  "3484": " earn",
  "3485": " title",
  "3486": " score",
  "3487": "astic",
  "3488": "anch",
  "3489": " select",
  "3490": " piece",
  "3491": "Cl",
  "3492": "wise",
  "3493": " letter",
  "3494": " sat",
  "3495": " sell",
  "3496": " safety",
  "3497": " gone",
  "3498": " clean",
  "3499": " Democrats",
  "3500": " choice",
  "3501": " ver",
  "3502": " sle",
  "3503": " meaning",
  "3504": "cient",
  "3505": " option",
  "3506": "raight",
  "3507": " beginning",
  "3508": " scene",
  "3509": " relative",
  "3510": "Now",
  "3511": "OS",
  "3512": "ications",
  "3513": "egr",
  "3514": " reasons",
  "3515": " cast",
  "3516": "rupt",
  "3517": " opin",
  "3518": " conditions",
  "3519": "ression",
  "3520": " appears",
  "3521": "а",
  "3522": "rief",
  "3523": "All",
  "3524": " helped",
  "3525": " launch",
  "3526": " agency",
  "3527": " Minister",
  "3528": " psych",
  "3529": " disapp",
  "3530": "aches",
  "3531": " Chinese",
  "3532": "inated",
  "3533": " designed",
  "3534": "hest",
  "3535": " dog",
  "3536": " difference",
  "3537": "atever",
  "3538": " wife",
  "3539": " ten",
  "3540": " receive",
  "3541": " Ser",
  "3542": " x",
  "3543": "roy",
  "3544": " Green",
  "3545": " century",
  "3546": " throw",
  "3547": "==",
  "3548": "AD",
  "3549": " officer",
  "3550": " color",
  "3551": " college",
  "3552": " moved",
  "3553": " 60",
  "3554": "oes",
  "3555": " Rober",
  "3556": " Associ",
  "3557": " property",
  "3558": " dise",
  "3559": " figure",
  "3560": " challeng",
  "3561": " William",
  "3562": "irth",
  "3563": "men",
  "3564": " deg",
  "3565": "riage",
  "3566": " speech",
  "3567": "omen",
  "3568": " physical",
  "3569": " ign",
  "3570": "uclear",
  "3571": "ilies",
  "3572": " First",
  "3573": " Ne",
  "3574": " pressure",
  "3575": " clos",
  "3576": " Bo",
  "3577": " Day",
  "3578": " aim",
  "3579": " ut",
  "3580": " compared",
  "3581": " maybe",
  "3582": " suspect",
  "3583": " sil",
  "3584": " copy",
  "3585": "ube",
  "3586": "de",
  "3587": " corpor",
  "3588": "imum",
  "3589": "berg",
  "3590": "sp",
  "3591": "ivity",
  "3592": "ux",
  "3593": "By",
  "3594": " sal",
  "3595": " complex",
  "3596": " Of",
  "3597": " Then",
  "3598": " Rich",
  "3599": " 29",
  "3600": " Tur",
  "3601": " Mex",
  "3602": "icient",
  "3603": "arian",
  "3604": " software",
  "3605": " income",
  "3606": " student",
  "3607": "new",
  "3608": "AP",
  "3609": " nature",
  "3610": "aughter",
  "3611": "airs",
  "3612": " eyes",
  "3613": " myself",
  "3614": "iles",
  "3615": " encour",
  "3616": "venue",
  "3617": "?\"",
  "3618": " smart",
  "3619": "Is",
  "3620": "itor",
  "3621": " alleged",
  "3622": " arch",
  "3623": " device",
  "3624": " rock",
  "3625": " fan",
  "3626": "80",
  "3627": "iable",
  "3628": " necessary",
  "3629": "ufact",
  "3630": " happy",
  "3631": "US",
  "3632": " park",
  "3633": "olute",
  "3634": " characters",
  "3635": " organization",
  "3636": " �",
  "3637": " cool",
  "3638": " moving",
  "3639": " largest",
  "3640": " Play",
  "3641": " followed",
  "3642": " estim",
  "3643": " politics",
  "3644": " actions",
  "3645": "My",
  "3646": "ocked",
  "3647": " powerful",
  "3648": "just",
  "3649": " prem",
  "3650": "agon",
  "3651": " meant",
  "3652": "Re",
  "3653": " Val",
  "3654": "wood",
  "3655": " treatment",
  "3656": " spending",
  "3657": " web",
  "3658": " aware",
  "3659": "resh",
  "3660": " wall",
  "3661": " blog",
  "3662": "ero",
  "3663": " analysis",
  "3664": " Mart",
  "3665": " tour",
  "3666": " feed",
  "3667": "iring",
  "3668": "arning",
  "3669": " positive",
  "3670": "chan",
  "3671": " nom",
  "3672": " citizens",
  "3673": " shown",
  "3674": " display",
  "3675": " sche",
  "3676": " esc",
  "3677": "yan",
  "3678": " candidate",
  "3679": " yourself",
  "3680": " twe",
  "3681": "enty",
  "3682": " limited",
  "3683": " stage",
  "3684": "ota",
  "3685": " II",
  "3686": " budget",
  "3687": "osh",
  "3688": "erve",
  "3689": " sales",
  "3690": "Advertisement",
  "3691": "more",
  "3692": " yes",
  "3693": " prec",
  "3694": " schools",
  "3695": " band",
  "3696": " charge",
  "3697": " computer",
  "3698": "uty",
  "3699": "inn",
  "3700": "itation",
  "3701": " French",
  "3702": "orks",
  "3703": " contribut",
  "3704": " crowd",
  "3705": " draft",
  "3706": " refer",
  "3707": " mix",
  "3708": " Angel",
  "3709": " forced",
  "3710": " conference",
  "3711": "orney",
  "3712": "orter",
  "3713": " measure",
  "3714": "igration",
  "3715": " drive",
  "3716": " bal",
  "3717": " eventually",
  "3718": " easily",
  "3719": " Sim",
  "3720": " presidential",
  "3721": " correct",
  "3722": "pre",
  "3723": " Tor",
  "3724": " overall",
  "3725": " straight",
  "3726": "ken",
  "3727": " religious",
  "3728": "iny",
  "3729": " Super",
  "3730": " appeared",
  "3731": " truth",
  "3732": " note",
  "3733": " Wind",
  "3734": " Jer",
  "3735": " Here",
  "3736": "According",
  "3737": "change",
  "3738": " cat",
  "3739": " pus",
  "3740": " autom",
  "3741": " confir",
  "3742": " allows",
  "3743": " families",
  "3744": " executive",
  "3745": "New",
  "3746": " Australia",
  "3747": " rap",
  "3748": " ang",
  "3749": " unique",
  "3750": " expand",
  "3751": " customers",
  "3752": " virt",
  "3753": " individuals",
  "3754": " disp",
  "3755": " streng",
  "3756": " crime",
  "3757": " feature",
  "3758": " Smith",
  "3759": " cris",
  "3760": " illeg",
  "3761": " detail",
  "3762": " battle",
  "3763": "ressed",
  "3764": " Ben",
  "3765": " Air",
  "3766": "bum",
  "3767": "):",
  "3768": "Be",
  "3769": " frequ",
  "3770": " decades",
  "3771": " emb",
  "3772": " drop",
  "3773": " developed",
  "3774": " command",
  "3775": " firm",
  "3776": " La",
  "3777": " attract",
  "3778": "0000",
  "3779": " seemed",
  "3780": " advant",
  "3781": " challenge",
  "3782": " continues",
  "3783": " signed",
  "3784": "ville",
  "3785": "rated",
  "3786": " predict",
  "3787": " brother",
  "3788": " Syria",
  "3789": "45",
  "3790": " lif",
  "3791": "Un",
  "3792": " rates",
  "3793": " grad",
  "3794": " knows",
  "3795": "craft",
  "3796": " lines",
  "3797": " Apple",
  "3798": " Council",
  "3799": " International",
  "3800": "olic",
  "3801": " benefits",
  "3802": "aint",
  "3803": "IA",
  "3804": " rare",
  "3805": " successful",
  "3806": "ean",
  "3807": " kept",
  "3808": " Police",
  "3809": "27",
  "3810": " nice",
  "3811": " central",
  "3812": " knowledge",
  "3813": "lease",
  "3814": " Comp",
  "3815": " sto",
  "3816": " har",
  "3817": " apparent",
  "3818": " reached",
  "3819": " goals",
  "3820": " reform",
  "3821": "26",
  "3822": " 196",
  "3823": " promot",
  "3824": "Some",
  "3825": " Internet",
  "3826": " manager",
  "3827": " lic",
  "3828": " Earth",
  "3829": " analy",
  "3830": " spot",
  "3831": "ength",
  "3832": " gives",
  "3833": " uses",
  "3834": "ares",
  "3835": " mist",
  "3836": "Don",
  "3837": "band",
  "3838": " previously",
  "3839": " indic",
  "3840": "ki",
  "3841": "ET",
  "3842": " trust",
  "3843": " minor",
  "3844": "35",
  "3845": " noted",
  "3846": " Christian",
  "3847": "nown",
  "3848": " vac",
  "3849": "itely",
  "3850": " highly",
  "3851": "while",
  "3852": " manufact",
  "3853": " feet",
  "3854": " ideas",
  "3855": " cities",
  "3856": "term",
  "3857": " studies",
  "3858": "ado",
  "3859": " susp",
  "3860": " fully",
  "3861": "net",
  "3862": " door",
  "3863": " Up",
  "3864": " Star",
  "3865": "antly",
  "3866": " shooting",
  "3867": " reflect",
  "3868": " beaut",
  "3869": " Bel",
  "3870": "icago",
  "3871": "oti",
  "3872": " From",
  "3873": " projects",
  "3874": " Flor",
  "3875": " organiz",
  "3876": " emot",
  "3877": "iance",
  "3878": "iverse",
  "3879": " senior",
  "3880": " incident",
  "3881": "part",
  "3882": " Cup",
  "3883": " Govern",
  "3884": "wide",
  "3885": " programs",
  "3886": " calling",
  "3887": " Mac",
  "3888": " raised",
  "3889": "sey",
  "3890": " weapons",
  "3891": "BA",
  "3892": " altern",
  "3893": " larger",
  "3894": " greater",
  "3895": "board",
  "3896": " save",
  "3897": " peace",
  "3898": " favorite",
  "3899": " Tom",
  "3900": " gold",
  "3901": "mar",
  "3902": "Ar",
  "3903": "onents",
  "3904": " nuclear",
  "3905": " related",
  "3906": " Franc",
  "3907": " caused",
  "3908": "onent",
  "3909": " School",
  "3910": "ounds",
  "3911": "________",
  "3912": " places",
  "3913": "aith",
  "3914": " owners",
  "3915": "cul",
  "3916": " intelligence",
  "3917": " traff",
  "3918": "roll",
  "3919": " eth",
  "3920": " Rec",
  "3921": " researchers",
  "3922": " fighting",
  "3923": "28",
  "3924": "29",
  "3925": " primary",
  "3926": " voice",
  "3927": " George",
  "3928": " status",
  "3929": " patients",
  "3930": " employees",
  "3931": " Ant",
  "3932": " regular",
  "3933": "ipp",
  "3934": " criminal",
  "3935": "oles",
  "3936": " General",
  "3937": "rol",
  "3938": " fine",
  "3939": " eye",
  "3940": "iced",
  "3941": " Brown",
  "3942": "itude",
  "3943": " send",
  "3944": " rule",
  "3945": " green",
  "3946": " clearly",
  "3947": " rise",
  "3948": "CC",
  "3949": " prices",
  "3950": "Not",
  "3951": " liter",
  "3952": " Every",
  "3953": " 2007",
  "3954": "see",
  "3955": "icit",
  "3956": " Def",
  "3957": " Rob",
  "3958": " push",
  "3959": " High",
  "3960": "encies",
  "3961": " resources",
  "3962": "box",
  "3963": " arm",
  "3964": " spread",
  "3965": "secut",
  "3966": "ica",
  "3967": " female",
  "3968": "bon",
  "3969": "uana",
  "3970": "owers",
  "3971": "aud",
  "3972": " Union",
  "3973": "oday",
  "3974": "ya",
  "3975": "usion",
  "3976": "ingly",
  "3977": " crisis",
  "3978": " wait",
  "3979": " Bay",
  "3980": " creating",
  "3981": " sources",
  "3982": " haven",
  "3983": " Dis",
  "3984": " supposed",
  "3985": "lection",
  "3986": " activity",
  "3987": "iders",
  "3988": " Met",
  "3989": "ID",
  "3990": "21",
  "3991": " shut",
  "3992": "OM",
  "3993": "ocks",
  "3994": " district",
  "3995": "ategy",
  "3996": "iled",
  "3997": "igned",
  "3998": " claimed",
  "3999": " funding",
  "4000": " charges",
  "4001": " style",
  "4002": " spir",
  "4003": " conflic",
  "4004": " Lou",
  "4005": "vere",
  "4006": " pun",
  "4007": " policies",
  "4008": "ifying",
  "4009": " parties",
  "4010": ".'",
  "4011": " Sun",
  "4012": " telev",
  "4013": " laun",
  "4014": " spend",
  "4015": " integr",
  "4016": " names",
  "4017": " Gold",
  "4018": " lik",
  "4019": " Reg",
  "4020": "EO",
  "4021": "spect",
  "4022": " slight",
  "4023": "ijuana",
  "4024": " seeing",
  "4025": "EC",
  "4026": " normal",
  "4027": " agreement",
  "4028": " traditional",
  "4029": " hospital",
  "4030": "ona",
  "4031": " basic",
  "4032": " album",
  "4033": " believed",
  "4034": " ended",
  "4035": " wonder",
  "4036": " offered",
  "4037": " grand",
  "4038": " obser",
  "4039": " happens",
  "4040": "earch",
  "4041": " Florida",
  "4042": "ection",
  "4043": " impl",
  "4044": " acqu",
  "4045": " options",
  "4046": "ipped",
  "4047": "Sc",
  "4048": " minister",
  "4049": " birth",
  "4050": "90",
  "4051": " whom",
  "4052": " beat",
  "4053": " marriage",
  "4054": " adop",
  "4055": " Chicago",
  "4056": " jump",
  "4057": "dom",
  "4058": " propos",
  "4059": " print",
  "4060": "aked",
  "4061": "SA",
  "4062": "500",
  "4063": " scen",
  "4064": " Germany",
  "4065": " adding",
  "4066": "mark",
  "4067": " Scott",
  "4068": "que",
  "4069": " street",
  "4070": " qual",
  "4071": " Bre",
  "4072": "ING",
  "4073": " insurance",
  "4074": "inger",
  "4075": " trou",
  "4076": " AP",
  "4077": " Arab",
  "4078": "ags",
  "4079": " beg",
  "4080": " assault",
  "4081": " revealed",
  "4082": " leaving",
  "4083": " Most",
  "4084": " Ber",
  "4085": " rank",
  "4086": " ensure",
  "4087": " willing",
  "4088": "70",
  "4089": " uns",
  "4090": " According",
  "4091": " arrested",
  "4092": " 2006",
  "4093": "roid",
  "4094": " Hillary",
  "4095": " section",
  "4096": " credit",
  "4097": " brief",
  "4098": " ir",
  "4099": " perm",
  "4100": " appl",
  "4101": "www",
  "4102": ".’",
  "4103": " unc",
  "4104": " determin",
  "4105": " records",
  "4106": " mostly",
  "4107": "upp",
  "4108": "uman",
  "4109": " enforce",
  "4110": " Trans",
  "4111": " wat",
  "4112": " freedom",
  "4113": " Oh",
  "4114": " station",
  "4115": " behavior",
  "4116": " authorities",
  "4117": "”,",
  "4118": " cry",
  "4119": "OU",
  "4120": " mount",
  "4121": " Health",
  "4122": " Alex",
  "4123": " massive",
  "4124": " temper",
  "4125": "aby",
  "4126": " miles",
  "4127": "EL",
  "4128": " absolute",
  "4129": " produce",
  "4130": "istry",
  "4131": " Port",
  "4132": " actual",
  "4133": " pattern",
  "4134": " concerns",
  "4135": " enem",
  "4136": " tend",
  "4137": " wild",
  "4138": "pri",
  "4139": " values",
  "4140": " >",
  "4141": " England",
  "4142": " Mo",
  "4143": " born",
  "4144": " fat",
  "4145": "acing",
  "4146": " drink",
  "4147": " application",
  "4148": "alse",
  "4149": "Pro",
  "4150": "pen",
  "4151": " plant",
  "4152": " commer",
  "4153": " Cr",
  "4154": "Here",
  "4155": " posted",
  "4156": " Johnson",
  "4157": "orial",
  "4158": " offers",
  "4159": " celebr",
  "4160": " advoc",
  "4161": "ront",
  "4162": " whatever",
  "4163": " Let",
  "4164": "cience",
  "4165": "cher",
  "4166": " mechan",
  "4167": " Secret",
  "4168": "ribution",
  "4169": " runs",
  "4170": " male",
  "4171": " weekend",
  "4172": "no",
  "4173": "gen",
  "4174": "100",
  "4175": " feeling",
  "4176": " picture",
  "4177": " produced",
  "4178": " choose",
  "4179": " kick",
  "4180": " independent",
  "4181": " train",
  "4182": "rian",
  "4183": " Mag",
  "4184": " Well",
  "4185": "soft",
  "4186": " learned",
  "4187": " theory",
  "4188": " commit",
  "4189": " belief",
  "4190": " showing",
  "4191": " dire",
  "4192": "ription",
  "4193": "Image",
  "4194": " Why",
  "4195": "uries",
  "4196": " adult",
  "4197": " weight",
  "4198": " mer",
  "4199": "uild",
  "4200": " critical",
  "4201": " coverage",
  "4202": "Bl",
  "4203": " lawy",
  "4204": "outhern",
  "4205": " teac",
  "4206": " images",
  "4207": " dollars",
  "4208": " enter",
  "4209": " debt",
  "4210": "и",
  "4211": " negoti",
  "4212": " cars",
  "4213": " Press",
  "4214": "33",
  "4215": " legislation",
  "4216": "arliam",
  "4217": " mur",
  "4218": " initial",
  "4219": " Sam",
  "4220": " residents",
  "4221": " Western",
  "4222": " Ham",
  "4223": " strategy",
  "4224": " occas",
  "4225": " judge",
  "4226": "rav",
  "4227": " EU",
  "4228": " proposed",
  "4229": " novel",
  "4230": "estic",
  "4231": " lose",
  "4232": " mission",
  "4233": " NFL",
  "4234": " dream",
  "4235": " benefit",
  "4236": " Law",
  "4237": " condition",
  "4238": " Wall",
  "4239": "ram",
  "4240": " fit",
  "4241": " digital",
  "4242": "ented",
  "4243": "orthern",
  "4244": " France",
  "4245": "icial",
  "4246": " influence",
  "4247": " etc",
  "4248": " advantage",
  "4249": " daily",
  "4250": " establish",
  "4251": "bert",
  "4252": " restrict",
  "4253": "mine",
  "4254": "ada",
  "4255": " devices",
  "4256": " protest",
  "4257": "ords",
  "4258": " Our",
  "4259": "cell",
  "4260": " brand",
  "4261": " confirmed",
  "4262": " Get",
  "4263": " operations",
  "4264": " Phil",
  "4265": "arliament",
  "4266": "illing",
  "4267": " responsible",
  "4268": " replace",
  "4269": "ugg",
  "4270": " camera",
  "4271": " cru",
  "4272": "ghan",
  "4273": " bur",
  "4274": " solution",
  "4275": " chem",
  "4276": "BS",
  "4277": " vill",
  "4278": " learning",
  "4279": " Committee",
  "4280": " provides",
  "4281": " charged",
  "4282": "http",
  "4283": " Stud",
  "4284": " effective",
  "4285": " asking",
  "4286": "ae",
  "4287": "icians",
  "4288": " map",
  "4289": "oms",
  "4290": " People",
  "4291": "However",
  "4292": " opening",
  "4293": " explained",
  "4294": " Mike",
  "4295": " highest",
  "4296": " chair",
  "4297": "Ex",
  "4298": "rial",
  "4299": "These",
  "4300": " generally",
  "4301": " basis",
  "4302": " =>",
  "4303": " trial",
  "4304": " hundreds",
  "4305": " 31",
  "4306": "point",
  "4307": " agreed",
  "4308": " opinion",
  "4309": " install",
  "4310": "umn",
  "4311": "ocr",
  "4312": "ears",
  "4313": " types",
  "4314": "т",
  "4315": " announce",
  "4316": "azing",
  "4317": "za",
  "4318": "iller",
  "4319": " Lab",
  "4320": " worse",
  "4321": " interested",
  "4322": " defend",
  "4323": " Mil",
  "4324": " heavy",
  "4325": " Great",
  "4326": " communities",
  "4327": " electric",
  "4328": " Mal",
  "4329": " 35",
  "4330": "rate",
  "4331": " partners",
  "4332": " easier",
  "4333": "iling",
  "4334": " negative",
  "4335": " reject",
  "4336": " onto",
  "4337": " ge",
  "4338": " disease",
  "4339": " victory",
  "4340": " associated",
  "4341": " Francis",
  "4342": "ipe",
  "4343": " border",
  "4344": "rig",
  "4345": "ties",
  "4346": " Ter",
  "4347": " Ro",
  "4348": " bottom",
  "4349": " Justice",
  "4350": " television",
  "4351": " putting",
  "4352": "ortunately",
  "4353": " understanding",
  "4354": " Found",
  "4355": " double",
  "4356": " housing",
  "4357": " marijuana",
  "4358": " hero",
  "4359": "omas",
  "4360": "coming",
  "4361": "ading",
  "4362": " limit",
  "4363": " earth",
  "4364": "44",
  "4365": " rat",
  "4366": " becomes",
  "4367": " fresh",
  "4368": " accused",
  "4369": "cont",
  "4370": " Korea",
  "4371": " Bush",
  "4372": " episode",
  "4373": " Office",
  "4374": " sleep",
  "4375": "ography",
  "4376": "ios",
  "4377": "Con",
  "4378": " core",
  "4379": "Get",
  "4380": " internet",
  "4381": " memory",
  "4382": " Div",
  "4383": "icip",
  "4384": "witch",
  "4385": " becoming",
  "4386": " bed",
  "4387": " controvers",
  "4388": " gay",
  "4389": " frame",
  "4390": " PC",
  "4391": "ste",
  "4392": " solid",
  "4393": " opposition",
  "4394": " Jim",
  "4395": " scientists",
  "4396": " millions",
  "4397": "IL",
  "4398": " strik",
  "4399": "level",
  "4400": " Because",
  "4401": " wealth",
  "4402": " reduce",
  "4403": " investment",
  "4404": " defe",
  "4405": " Other",
  "4406": " Los",
  "4407": " location",
  "4408": "win",
  "4409": " extremely",
  "4410": " competition",
  "4411": " Liber",
  "4412": " thus",
  "4413": " nine",
  "4414": "iliar",
  "4415": " winning",
  "4416": " labor",
  "4417": " surround",
  "4418": " Islamic",
  "4419": " Canadian",
  "4420": " Bit",
  "4421": " opened",
  "4422": " tick",
  "4423": " served",
  "4424": "andom",
  "4425": "scrib",
  "4426": "ih",
  "4427": " 90",
  "4428": " incred",
  "4429": " Que",
  "4430": "ours",
  "4431": " mobile",
  "4432": " assum",
  "4433": "oly",
  "4434": "akistan",
  "4435": "vest",
  "4436": " join",
  "4437": " Many",
  "4438": "iful",
  "4439": "olf",
  "4440": " destroy",
  "4441": "miss",
  "4442": " audience",
  "4443": "irgin",
  "4444": "GB",
  "4445": " machine",
  "4446": " north",
  "4447": "icrosoft",
  "4448": " active",
  "4449": " supporters",
  "4450": " max",
  "4451": " 00",
  "4452": "32",
  "4453": "lant",
  "4454": " separate",
  "4455": "36",
  "4456": " issued",
  "4457": " achieve",
  "4458": "iation",
  "4459": " restaur",
  "4460": " Art",
  "4461": "vention",
  "4462": "rey",
  "4463": " ded",
  "4464": "well",
  "4465": "known",
  "4466": " shared",
  "4467": " drugs",
  "4468": " resist",
  "4469": " Institute",
  "4470": "•",
  "4471": "FC",
  "4472": " explain",
  "4473": " decade",
  "4474": " illegal",
  "4475": " harm",
  "4476": "ius",
  "4477": " purpose",
  "4478": " faith",
  "4479": " watching",
  "4480": " spoke",
  "4481": " sites",
  "4482": " UN",
  "4483": " 70",
  "4484": " Mod",
  "4485": " south",
  "4486": " Jones",
  "4487": " views",
  "4488": " Hall",
  "4489": "lished",
  "4490": " department",
  "4491": " comfort",
  "4492": "istics",
  "4493": " 80",
  "4494": " church",
  "4495": "aks",
  "4496": " Del",
  "4497": "igrants",
  "4498": " Mad",
  "4499": " ship",
  "4500": " ran",
  "4501": "edy",
  "4502": " Commission",
  "4503": "ey",
  "4504": " management",
  "4505": "ouston",
  "4506": " Windows",
  "4507": "acity",
  "4508": " Since",
  "4509": "works",
  "4510": "imb",
  "4511": "ici",
  "4512": "█",
  "4513": "ario",
  "4514": " existing",
  "4515": " Security",
  "4516": " professional",
  "4517": " floor",
  "4518": " Uk",
  "4519": " transport",
  "4520": " aspect",
  "4521": "ady",
  "4522": " Robert",
  "4523": " doubt",
  "4524": " Miss",
  "4525": "ulf",
  "4526": " serve",
  "4527": " purs",
  "4528": " Palest",
  "4529": " FBI",
  "4530": " Add",
  "4531": " background",
  "4532": "asy",
  "4533": " returned",
  "4534": " finding",
  "4535": " Att",
  "4536": " neighbor",
  "4537": " spl",
  "4538": " cash",
  "4539": " Chris",
  "4540": "atically",
  "4541": "NN",
  "4542": "inate",
  "4543": "azon",
  "4544": " generation",
  "4545": " trend",
  "4546": " hearing",
  "4547": "spe",
  "4548": "resp",
  "4549": " kid",
  "4550": " leadership",
  "4551": " Angeles",
  "4552": "Americ",
  "4553": " unlike",
  "4554": "going",
  "4555": " plays",
  "4556": " transfer",
  "4557": " categ",
  "4558": "house",
  "4559": " surface",
  "4560": " definitely",
  "4561": " concerned",
  "4562": " witness",
  "4563": " driving",
  "4564": " Afghan",
  "4565": " structure",
  "4566": " documents",
  "4567": "ctors",
  "4568": " argument",
  "4569": "lands",
  "4570": " injury",
  "4571": "annel",
  "4572": "с",
  "4573": " guard",
  "4574": " launched",
  "4575": "DA",
  "4576": " sports",
  "4577": " Your",
  "4578": "rick",
  "4579": " load",
  "4580": "PS",
  "4581": " dangerous",
  "4582": " bomb",
  "4583": " Like",
  "4584": " African",
  "4585": "odes",
  "4586": " cards",
  "4587": " farm",
  "4588": "udd",
  "4589": "Mr",
  "4590": " teach",
  "4591": " vs",
  "4592": " afford",
  "4593": " fuel",
  "4594": " Sup",
  "4595": " san",
  "4596": "ampionship",
  "4597": " Big",
  "4598": "icy",
  "4599": " decisions",
  "4600": " Sanders",
  "4601": "zen",
  "4602": "ait",
  "4603": " discovered",
  "4604": "eah",
  "4605": " coal",
  "4606": " vehicle",
  "4607": "which",
  "4608": "ulated",
  "4609": "met",
  "4610": " caught",
  "4611": "38",
  "4612": " Rom",
  "4613": " ;",
  "4614": " Dist",
  "4615": " micro",
  "4616": " Commun",
  "4617": " items",
  "4618": " appeal",
  "4619": " committee",
  "4620": "eline",
  "4621": " direction",
  "4622": " refere",
  "4623": " blue",
  "4624": "!!",
  "4625": " photo",
  "4626": " sun",
  "4627": " telling",
  "4628": " que",
  "4629": " murder",
  "4630": " testing",
  "4631": " Church",
  "4632": "anted",
  "4633": " Africa",
  "4634": " nor",
  "4635": " holding",
  "4636": "OL",
  "4637": "inct",
  "4638": "ference",
  "4639": " largely",
  "4640": "ibrary",
  "4641": " supported",
  "4642": " traffic",
  "4643": " react",
  "4644": "orrow",
  "4645": " wel",
  "4646": " Rock",
  "4647": " notice",
  "4648": " amb",
  "4649": "rd",
  "4650": "andon",
  "4651": " closed",
  "4652": " Wil",
  "4653": "oyal",
  "4654": " repeated",
  "4655": " daughter",
  "4656": " candidates",
  "4657": " suggested",
  "4658": " radio",
  "4659": " Bank",
  "4660": "arant",
  "4661": "rad",
  "4662": "but",
  "4663": " measures",
  "4664": " Mexico",
  "4665": "49",
  "4666": " worst",
  "4667": " Mat",
  "4668": " Jewish",
  "4669": "serv",
  "4670": " context",
  "4671": " believes",
  "4672": " die",
  "4673": " scale",
  "4674": " conservative",
  "4675": "lor",
  "4676": " Inc",
  "4677": "agn",
  "4678": "75",
  "4679": " Louis",
  "4680": " commercial",
  "4681": " tools",
  "4682": "iest",
  "4683": " Carol",
  "4684": " girls",
  "4685": " notes",
  "4686": " allowing",
  "4687": " planet",
  "4688": " Tre",
  "4689": " Sl",
  "4690": " smaller",
  "4691": " Ir",
  "4692": " Cap",
  "4693": " older",
  "4694": " THE",
  "4695": "mail",
  "4696": " Pre",
  "4697": "ander",
  "4698": " victims",
  "4699": " entirely",
  "4700": " strength",
  "4701": " animals",
  "4702": "enses",
  "4703": " Ac",
  "4704": "overy",
  "4705": " waiting",
  "4706": "phone",
  "4707": " Pakistan",
  "4708": "hem",
  "4709": "equ",
  "4710": " graph",
  "4711": " exerc",
  "4712": "PA",
  "4713": " interests",
  "4714": " ur",
  "4715": " deliver",
  "4716": " compar",
  "4717": " requires",
  "4718": "р",
  "4719": " guess",
  "4720": "�",
  "4721": " survey",
  "4722": " Are",
  "4723": " raise",
  "4724": " der",
  "4725": " Over",
  "4726": "how",
  "4727": " unit",
  "4728": "tered",
  "4729": "izes",
  "4730": "itable",
  "4731": " activities",
  "4732": "Our",
  "4733": " eat",
  "4734": " Association",
  "4735": " fourth",
  "4736": "season",
  "4737": " mentioned",
  "4738": " Game",
  "4739": " 195",
  "4740": " businesses",
  "4741": " 127",
  "4742": "igan",
  "4743": " hack",
  "4744": " false",
  "4745": " Ty",
  "4746": " cook",
  "4747": "owl",
  "4748": " length",
  "4749": "isf",
  "4750": "!”",
  "4751": " task",
  "4752": " consequ",
  "4753": " cancer",
  "4754": " truly",
  "4755": " Step",
  "4756": " instance",
  "4757": " trip",
  "4758": " joined",
  "4759": " Ukrain",
  "4760": " Direct",
  "4761": " species",
  "4762": " attend",
  "4763": "nel",
  "4764": " stated",
  "4765": " Fore",
  "4766": " Ev",
  "4767": "do",
  "4768": " hair",
  "4769": "48",
  "4770": " Kh",
  "4771": " placed",
  "4772": " managed",
  "4773": "night",
  "4774": "ception",
  "4775": "inter",
  "4776": " Instead",
  "4777": "hens",
  "4778": " please",
  "4779": " enforcement",
  "4780": "anging",
  "4781": " annual",
  "4782": " Houston",
  "4783": " models",
  "4784": " exchange",
  "4785": " Supreme",
  "4786": " Jeff",
  "4787": "kins",
  "4788": " focused",
  "4789": " driver",
  "4790": " Ver",
  "4791": " rough",
  "4792": "oted",
  "4793": " strateg",
  "4794": " pet",
  "4795": " Jose",
  "4796": " removed",
  "4797": " Army",
  "4798": " Jes",
  "4799": " stopped",
  "4800": " accur",
  "4801": " Pri",
  "4802": " Japanese",
  "4803": " //",
  "4804": " gain",
  "4805": " planning",
  "4806": "cknow",
  "4807": "ulate",
  "4808": " mental",
  "4809": "range",
  "4810": " Mer",
  "4811": " assess",
  "4812": "ossible",
  "4813": "ighter",
  "4814": " initi",
  "4815": " hus",
  "4816": " Sil",
  "4817": " Jud",
  "4818": " phil",
  "4819": " detect",
  "4820": "semb",
  "4821": " stock",
  "4822": "icon",
  "4823": " Fin",
  "4824": " ice",
  "4825": "lege",
  "4826": " GOP",
  "4827": "aren",
  "4828": " spokesman",
  "4829": "onto",
  "4830": "EM",
  "4831": "ocracy",
  "4832": "ructure",
  "4833": " established",
  "4834": " failure",
  "4835": " conversation",
  "4836": " hasn",
  "4837": " beer",
  "4838": " bul",
  "4839": "ano",
  "4840": " catch",
  "4841": " contain",
  "4842": "outs",
  "4843": "lig",
  "4844": " setting",
  "4845": " missing",
  "4846": " 2005",
  "4847": "‘",
  "4848": "uct",
  "4849": "anda",
  "4850": "CH",
  "4851": " committed",
  "4852": "More",
  "4853": " recommend",
  "4854": " defensive",
  "4855": " Rub",
  "4856": " CEO",
  "4857": " arrived",
  "4858": " fant",
  "4859": " offensive",
  "4860": "azine",
  "4861": "37",
  "4862": " appropri",
  "4863": " Pet",
  "4864": "itz",
  "4865": " providing",
  "4866": " download",
  "4867": "ancy",
  "4868": " conclud",
  "4869": "uke",
  "4870": "NA",
  "4871": " sch",
  "4872": " presence",
  "4873": " tells",
  "4874": " introduced",
  "4875": " Although",
  "4876": " 2018",
  "4877": "ronic",
  "4878": " taxes",
  "4879": "hi",
  "4880": " tough",
  "4881": "Trump",
  "4882": " sequ",
  "4883": "Read",
  "4884": " familiar",
  "4885": " hate",
  "4886": " construction",
  "4887": "uzz",
  "4888": "place",
  "4889": " newsp",
  "4890": " killing",
  "4891": " finished",
  "4892": " Britain",
  "4893": "wing",
  "4894": " useful",
  "4895": " univers",
  "4896": " partner",
  "4897": "isation",
  "4898": " obvious",
  "4899": "cks",
  "4900": " protection",
  "4901": "ribute",
  "4902": "awn",
  "4903": "stream",
  "4904": "uters",
  "4905": " circum",
  "4906": " Yes",
  "4907": "tained",
  "4908": "real",
  "4909": " exclus",
  "4910": " sust",
  "4911": " keeping",
  "4912": " gender",
  "4913": " window",
  "4914": " update",
  "4915": " aggress",
  "4916": " Group",
  "4917": " justice",
  "4918": " identity",
  "4919": "RA",
  "4920": " veter",
  "4921": " discussion",
  "4922": " tim",
  "4923": " stick",
  "4924": " relatively",
  "4925": " suggests",
  "4926": "olly",
  "4927": " Virgin",
  "4928": " seconds",
  "4929": "itutional",
  "4930": "hedul",
  "4931": " otherwise",
  "4932": ",'",
  "4933": " acknow",
  "4934": " Tim",
  "4935": " Fox",
  "4936": "ource",
  "4937": "odies",
  "4938": " Thomas",
  "4939": " cuts",
  "4940": "what",
  "4941": " Israeli",
  "4942": " emerg",
  "4943": "formation",
  "4944": " skills",
  "4945": "apped",
  "4946": " abuse",
  "4947": " transl",
  "4948": "ka",
  "4949": " Microsoft",
  "4950": " Service",
  "4951": " amazing",
  "4952": "vant",
  "4953": " homes",
  "4954": " click",
  "4955": " Leg",
  "4956": "ola",
  "4957": "dden",
  "4958": " thanks",
  "4959": " speaking",
  "4960": "ym",
  "4961": "vis",
  "4962": " therefore",
  "4963": "anned",
  "4964": "aded",
  "4965": " organizations",
  "4966": " connection",
  "4967": " supply",
  "4968": "HL",
  "4969": " prefer",
  "4970": " union",
  "4971": " identified",
  "4972": " healthy",
  "4973": " depend",
  "4974": " Richard",
  "4975": " units",
  "4976": "á",
  "4977": "la",
  "4978": " Ryan",
  "4979": " Photo",
  "4980": " wish",
  "4981": " decide",
  "4982": " Prof",
  "4983": " 45",
  "4984": "eless",
  "4985": "ocal",
  "4986": " server",
  "4987": " possibly",
  "4988": "onym",
  "4989": " bigger",
  "4990": "rees",
  "4991": " sides",
  "4992": " developers",
  "4993": " Char",
  "4994": " elements",
  "4995": "о�",
  "4996": "ups",
  "4997": "prof",
  "4998": "gers",
  "4999": " photos",
  "5000": "with",
  "5001": "ga",
  "5002": "AA",
  "5003": " award",
  "5004": " yards",
  "5005": " pair",
  "5006": " operation",
  "5007": "agues",
  "5008": " occup",
  "5009": "47",
  "5010": " Mont",
  "5011": "isted",
  "5012": " Nor",
  "5013": " Const",
  "5014": " solar",
  "5015": " Research",
  "5016": "bre",
  "5017": " Joe",
  "5018": " Central",
  "5019": " slightly",
  "5020": " files",
  "5021": "ansion",
  "5022": " feels",
  "5023": " Sub",
  "5024": "gl",
  "5025": "ancing",
  "5026": "ynam",
  "5027": "ologies",
  "5028": " 2000",
  "5029": " Mars",
  "5030": " religion",
  "5031": " paying",
  "5032": " none",
  "5033": " steps",
  "5034": "makers",
  "5035": " sudden",
  "5036": " remind",
  "5037": " figures",
  "5038": "Photo",
  "5039": " dropped",
  "5040": "osure",
  "5041": " owner",
  "5042": " cells",
  "5043": " Team",
  "5044": "Why",
  "5045": "arks",
  "5046": " tweet",
  "5047": "SP",
  "5048": " starts",
  "5049": "Last",
  "5050": "icide",
  "5051": " worry",
  "5052": " Mos",
  "5053": " Jon",
  "5054": " Sur",
  "5055": "ucky",
  "5056": " prospect",
  "5057": " Medic",
  "5058": " 32",
  "5059": " conflict",
  "5060": " Images",
  "5061": "olit",
  "5062": " domestic",
  "5063": "01",
  "5064": " academ",
  "5065": " sport",
  "5066": " collection",
  "5067": "verse",
  "5068": "related",
  "5069": "osen",
  "5070": " multi",
  "5071": " Frank",
  "5072": "mas",
  "5073": "ula",
  "5074": " refuge",
  "5075": " Two",
  "5076": " error",
  "5077": " Secretary",
  "5078": "oston",
  "5079": "imal",
  "5080": " helping",
  "5081": "].",
  "5082": " variety",
  "5083": " princ",
  "5084": "39",
  "5085": " scientific",
  "5086": " degree",
  "5087": " changing",
  "5088": " Sal",
  "5089": " Government",
  "5090": " strike",
  "5091": "den",
  "5092": "aven",
  "5093": " Prime",
  "5094": "roud",
  "5095": " appoint",
  "5096": "ava",
  "5097": " immigration",
  "5098": " fellow",
  "5099": " pil",
  "5100": "gar",
  "5101": " mere",
  "5102": " carried",
  "5103": "gypt",
  "5104": "idering",
  "5105": " Their",
  "5106": " Gree",
  "5107": "kin",
  "5108": "Pl",
  "5109": " spirit",
  "5110": "pm",
  "5111": " planned",
  "5112": " fif",
  "5113": "Go",
  "5114": " commission",
  "5115": " husband",
  "5116": " Den",
  "5117": " Ari",
  "5118": "46",
  "5119": " ath",
  "5120": " Web",
  "5121": " Mur",
  "5122": " Lee",
  "5123": " Android",
  "5124": " accounts",
  "5125": " heat",
  "5126": " equip",
  "5127": " balance",
  "5128": " happening",
  "5129": " appre",
  "5130": "ipping",
  "5131": " River",
  "5132": " Det",
  "5133": " Out",
  "5134": " filed",
  "5135": " professor",
  "5136": "erous",
  "5137": " apparently",
  "5138": " Mary",
  "5139": "acks",
  "5140": " regarding",
  "5141": " weak",
  "5142": " Last",
  "5143": " honest",
  "5144": " Toronto",
  "5145": " Inter",
  "5146": " spect",
  "5147": "rency",
  "5148": " Australian",
  "5149": " Palestin",
  "5150": " banks",
  "5151": " Martin",
  "5152": " Pac",
  "5153": "ulner",
  "5154": " applications",
  "5155": " Atlant",
  "5156": " Division",
  "5157": " increasingly",
  "5158": "sen",
  "5159": " mut",
  "5160": " Time",
  "5161": " talks",
  "5162": " funds",
  "5163": "ket",
  "5164": " schedul",
  "5165": " vehicles",
  "5166": " tests",
  "5167": " teen",
  "5168": "itect",
  "5169": "Des",
  "5170": " roll",
  "5171": "uate",
  "5172": " corner",
  "5173": "ht",
  "5174": " army",
  "5175": "ashed",
  "5176": "coh",
  "5177": " deploy",
  "5178": " Also",
  "5179": " markets",
  "5180": " Camp",
  "5181": "bour",
  "5182": "Le",
  "5183": " Amazon",
  "5184": "cious",
  "5185": " philos",
  "5186": "ocol",
  "5187": " lived",
  "5188": " ST",
  "5189": " 36",
  "5190": "hand",
  "5191": " fle",
  "5192": " rich",
  "5193": " Good",
  "5194": "31",
  "5195": " tast",
  "5196": " hyp",
  "5197": " Foundation",
  "5198": " twice",
  "5199": " skin",
  "5200": "icted",
  "5201": "ias",
  "5202": " Cath",
  "5203": "illa",
  "5204": "gn",
  "5205": "endment",
  "5206": " troops",
  "5207": " tack",
  "5208": "isher",
  "5209": " apply",
  "5210": " Us",
  "5211": " vast",
  "5212": " soldiers",
  "5213": " regist",
  "5214": " occurred",
  "5215": " Power",
  "5216": "rastructure",
  "5217": "ros",
  "5218": "alls",
  "5219": " environmental",
  "5220": " tight",
  "5221": " standing",
  "5222": " sounds",
  "5223": " Dec",
  "5224": " flight",
  "5225": " helps",
  "5226": " developing",
  "5227": " scr",
  "5228": "----------------",
  "5229": " sitting",
  "5230": " ■",
  "5231": "apers",
  "5232": " fol",
  "5233": " streets",
  "5234": " losing",
  "5235": "ayer",
  "5236": " clin",
  "5237": "Ab",
  "5238": " shall",
  "5239": " innov",
  "5240": "uster",
  "5241": " writer",
  "5242": " vision",
  "5243": " batter",
  "5244": " turns",
  "5245": "ania",
  "5246": "ader",
  "5247": " random",
  "5248": "under",
  "5249": "ores",
  "5250": " Bur",
  "5251": " imagine",
  "5252": " impossible",
  "5253": " Fire",
  "5254": " experts",
  "5255": "IV",
  "5256": " neighborhood",
  "5257": "ION",
  "5258": " ultimately",
  "5259": " potentially",
  "5260": "UT",
  "5261": " interact",
  "5262": " �",
  "5263": " convention",
  "5264": " authority",
  "5265": " attorney",
  "5266": " �",
  "5267": "ils",
  "5268": " MP",
  "5269": " greatest",
  "5270": "anche",
  "5271": " Those",
  "5272": "\":",
  "5273": " Under",
  "5274": " humans",
  "5275": " ce",
  "5276": "oving",
  "5277": " beautiful",
  "5278": " absolutely",
  "5279": "55",
  "5280": " standards",
  "5281": " seeking",
  "5282": " Francisco",
  "5283": " presented",
  "5284": " dat",
  "5285": "run",
  "5286": "abb",
  "5287": " pieces",
  "5288": " guarant",
  "5289": " forms",
  "5290": " faster",
  "5291": " NBA",
  "5292": "ruit",
  "5293": " expensive",
  "5294": " Put",
  "5295": "From",
  "5296": "oom",
  "5297": "gu",
  "5298": " territ",
  "5299": " stars",
  "5300": " refused",
  "5301": "iser",
  "5302": " cold",
  "5303": "██",
  "5304": " signs",
  "5305": " pit",
  "5306": " operating",
  "5307": " capacity",
  "5308": "state",
  "5309": " alternative",
  "5310": " rid",
  "5311": " 2004",
  "5312": " youth",
  "5313": " covered",
  "5314": "ressive",
  "5315": " equipment",
  "5316": "atures",
  "5317": " apart",
  "5318": " brow",
  "5319": " crew",
  "5320": "othes",
  "5321": " Nov",
  "5322": " voted",
  "5323": " Jo",
  "5324": " odd",
  "5325": " possibility",
  "5326": " coast",
  "5327": "och",
  "5328": " broken",
  "5329": "adium",
  "5330": "Of",
  "5331": "!\"",
  "5332": " sea",
  "5333": " script",
  "5334": " Carolina",
  "5335": " determine",
  "5336": "ashion",
  "5337": " LA",
  "5338": "etic",
  "5339": " retail",
  "5340": " adjust",
  "5341": " perspect",
  "5342": "Even",
  "5343": " elections",
  "5344": " unless",
  "5345": " responsibility",
  "5346": " famous",
  "5347": " nar",
  "5348": "fe",
  "5349": " arms",
  "5350": "issions",
  "5351": "ighters",
  "5352": "IP",
  "5353": " seasons",
  "5354": " corporate",
  "5355": " hurt",
  "5356": " revolution",
  "5357": "idden",
  "5358": " closer",
  "5359": "enced",
  "5360": "Just",
  "5361": " stress",
  "5362": " proposal",
  "5363": " Jackson",
  "5364": "lets",
  "5365": " IN",
  "5366": " trail",
  "5367": " internal",
  "5368": "IM",
  "5369": " expressed",
  "5370": "rible",
  "5371": " seat",
  "5372": " din",
  "5373": " Sol",
  "5374": " estimated",
  "5375": "ini",
  "5376": " surprise",
  "5377": " Public",
  "5378": " Hy",
  "5379": " College",
  "5380": " animal",
  "5381": "terday",
  "5382": "03",
  "5383": " Boston",
  "5384": " pointed",
  "5385": " indeed",
  "5386": "icate",
  "5387": "SS",
  "5388": "OW",
  "5389": "()",
  "5390": " percentage",
  "5391": " Syrian",
  "5392": " carbon",
  "5393": " Williams",
  "5394": " Guard",
  "5395": "person",
  "5396": " ruling",
  "5397": " hun",
  "5398": "ato",
  "5399": " rent",
  "5400": "otic",
  "5401": " conclus",
  "5402": " gar",
  "5403": "astern",
  "5404": " vulner",
  "5405": " weapon",
  "5406": " appearance",
  "5407": " Bitcoin",
  "5408": "lymp",
  "5409": " sector",
  "5410": " Bern",
  "5411": "stein",
  "5412": " ton",
  "5413": " Once",
  "5414": " Egypt",
  "5415": " governments",
  "5416": " Journal",
  "5417": "phas",
  "5418": " motiv",
  "5419": "urban",
  "5420": " specifically",
  "5421": " factors",
  "5422": " Sant",
  "5423": " trig",
  "5424": "date",
  "5425": "TA",
  "5426": " rapid",
  "5427": " expert",
  "5428": " bringing",
  "5429": " District",
  "5430": " distance",
  "5431": " Conserv",
  "5432": " prove",
  "5433": " Daily",
  "5434": "ureau",
  "5435": "34",
  "5436": " agencies",
  "5437": "cean",
  "5438": "edia",
  "5439": " baby",
  "5440": " videos",
  "5441": " insp",
  "5442": " heav",
  "5443": " sale",
  "5444": " located",
  "5445": " herself",
  "5446": "pret",
  "5447": " selling",
  "5448": " Book",
  "5449": "Every",
  "5450": " plenty",
  "5451": " instit",
  "5452": "cohol",
  "5453": " cultural",
  "5454": " intended",
  "5455": "noon",
  "5456": " grew",
  "5457": "Sp",
  "5458": " infrastructure",
  "5459": " experiment",
  "5460": " AM",
  "5461": "road",
  "5462": "ller",
  "5463": " agent",
  "5464": " Mel",
  "5465": "look",
  "5466": " marg",
  "5467": "Let",
  "5468": " subs",
  "5469": " reaction",
  "5470": "Up",
  "5471": "II",
  "5472": " revenue",
  "5473": " stret",
  "5474": " elim",
  "5475": " jail",
  "5476": " dim",
  "5477": " argued",
  "5478": " Virginia",
  "5479": "rier",
  "5480": " maintain",
  "5481": " handle",
  "5482": " determined",
  "5483": " bought",
  "5484": " Road",
  "5485": " methods",
  "5486": " Tra",
  "5487": " offering",
  "5488": " significantly",
  "5489": " copyright",
  "5490": "arp",
  "5491": " fired",
  "5492": " dram",
  "5493": " visual",
  "5494": " Steve",
  "5495": " remained",
  "5496": " flow",
  "5497": " votes",
  "5498": " equal",
  "5499": "cel",
  "5500": "CL",
  "5501": " elected",
  "5502": "eder",
  "5503": " 500",
  "5504": " university",
  "5505": "uration",
  "5506": " era",
  "5507": "Since",
  "5508": " breat",
  "5509": "anish",
  "5510": "IG",
  "5511": " Middle",
  "5512": "mosp",
  "5513": " satisf",
  "5514": " Federal",
  "5515": " secure",
  "5516": " finish",
  "5517": " ast",
  "5518": " Afghanistan",
  "5519": "lines",
  "5520": " wood",
  "5521": "angers",
  "5522": "uts",
  "5523": "essions",
  "5524": " regime",
  "5525": " consult",
  "5526": "esters",
  "5527": " weren",
  "5528": " wearing",
  "5529": " council",
  "5530": " chemical",
  "5531": " boost",
  "5532": " USA",
  "5533": " criticism",
  "5534": "orage",
  "5535": " prosecut",
  "5536": " column",
  "5537": " mal",
  "5538": " upgr",
  "5539": " bound",
  "5540": " experienced",
  "5541": " completed",
  "5542": "standing",
  "5543": " positions",
  "5544": "iat",
  "5545": " obviously",
  "5546": " remove",
  "5547": " Mass",
  "5548": "TV",
  "5549": " Bet",
  "5550": " films",
  "5551": " broke",
  "5552": " conducted",
  "5553": " Olymp",
  "5554": "life",
  "5555": " concent",
  "5556": " Bob",
  "5557": " appreci",
  "5558": " Island",
  "5559": " surprising",
  "5560": " affected",
  "5561": " advance",
  "5562": " combat",
  "5563": " cas",
  "5564": "ocking",
  "5565": "obe",
  "5566": "First",
  "5567": "65",
  "5568": " turning",
  "5569": " Please",
  "5570": " Chief",
  "5571": " quant",
  "5572": " Social",
  "5573": "free",
  "5574": " involve",
  "5575": "inating",
  "5576": " symb",
  "5577": " caption",
  "5578": " Ohio",
  "5579": " Any",
  "5580": " differences",
  "5581": " During",
  "5582": "ulations",
  "5583": " tele",
  "5584": " tact",
  "5585": " basically",
  "5586": "mm",
  "5587": " Wood",
  "5588": "class",
  "5589": " privacy",
  "5590": " switch",
  "5591": " prime",
  "5592": " Ron",
  "5593": "ellow",
  "5594": " pulled",
  "5595": " recorded",
  "5596": " Space",
  "5597": "ita",
  "5598": "lyn",
  "5599": " seriously",
  "5600": " passing",
  "5601": " glass",
  "5602": " Paris",
  "5603": "reens",
  "5604": " shape",
  "5605": " fly",
  "5606": " advert",
  "5607": " cann",
  "5608": "н",
  "5609": " Sing",
  "5610": " accident",
  "5611": " Free",
  "5612": " treated",
  "5613": "onom",
  "5614": "DP",
  "5615": " Gal",
  "5616": "Do",
  "5617": " remaining",
  "5618": " belong",
  "5619": " rain",
  "5620": " facing",
  "5621": " ends",
  "5622": " reduced",
  "5623": " aircraft",
  "5624": " excited",
  "5625": "05",
  "5626": " spring",
  "5627": " married",
  "5628": " explo",
  "5629": " attempts",
  "5630": " Both",
  "5631": "employ",
  "5632": "olved",
  "5633": " thank",
  "5634": " widely",
  "5635": " prepared",
  "5636": " Media",
  "5637": "ENT",
  "5638": " plus",
  "5639": " originally",
  "5640": " Lat",
  "5641": " Haw",
  "5642": " surve",
  "5643": " AN",
  "5644": " afternoon",
  "5645": "gment",
  "5646": " talked",
  "5647": " opportunities",
  "5648": " bodies",
  "5649": " vir",
  "5650": " collabor",
  "5651": " cloud",
  "5652": "ivered",
  "5653": "hy",
  "5654": " suppl",
  "5655": "useum",
  "5656": "Pe",
  "5657": " opposed",
  "5658": " dismiss",
  "5659": "rawn",
  "5660": "aped",
  "5661": " storm",
  "5662": " hopes",
  "5663": " zone",
  "5664": " element",
  "5665": " Color",
  "5666": "ensions",
  "5667": " pages",
  "5668": " considering",
  "5669": "oking",
  "5670": "avor",
  "5671": " supporting",
  "5672": "Ind",
  "5673": "aine",
  "5674": " reference",
  "5675": " minute",
  "5676": " identify",
  "5677": " Rem",
  "5678": " Fer",
  "5679": " master",
  "5680": " batt",
  "5681": "yr",
  "5682": "porary",
  "5683": "His",
  "5684": " Rod",
  "5685": "Well",
  "5686": "�",
  "5687": "Another",
  "5688": " contrast",
  "5689": " diss",
  "5690": " Rel",
  "5691": " proceed",
  "5692": " Who",
  "5693": "ternal",
  "5694": "42",
  "5695": "that",
  "5696": " broadcast",
  "5697": "aniel",
  "5698": " frust",
  "5699": " purchase",
  "5700": " evening",
  "5701": " liberal",
  "5702": " giant",
  "5703": "nam",
  "5704": " Phot",
  "5705": " Blue",
  "5706": " Labour",
  "5707": " Human",
  "5708": "arts",
  "5709": " ske",
  "5710": " optim",
  "5711": " explos",
  "5712": " Matt",
  "5713": "osite",
  "5714": "erved",
  "5715": "ourney",
  "5716": "anged",
  "5717": " consumers",
  "5718": " lots",
  "5719": " Stan",
  "5720": " 1990",
  "5721": " transition",
  "5722": " leads",
  "5723": " politicians",
  "5724": " listen",
  "5725": " reporters",
  "5726": "war",
  "5727": " shift",
  "5728": " emp",
  "5729": " challenges",
  "5730": "ortion",
  "5731": " denied",
  "5732": " Show",
  "5733": " Science",
  "5734": " Project",
  "5735": " Force",
  "5736": " Peter",
  "5737": "abilities",
  "5738": "Tube",
  "5739": " ment",
  "5740": "rog",
  "5741": " voting",
  "5742": "ompl",
  "5743": " lit",
  "5744": " crimes",
  "5745": " picked",
  "5746": "usiness",
  "5747": "host",
  "5748": "ampion",
  "5749": " craft",
  "5750": " Capt",
  "5751": " struggle",
  "5752": " sem",
  "5753": " See",
  "5754": "rie",
  "5755": "oral",
  "5756": " severe",
  "5757": "aled",
  "5758": " Muslims",
  "5759": "ras",
  "5760": " combined",
  "5761": "lo",
  "5762": "LS",
  "5763": "pass",
  "5764": " creation",
  "5765": " unable",
  "5766": " faces",
  "5767": " agents",
  "5768": " PM",
  "5769": " Sher",
  "5770": "urrent",
  "5771": "reland",
  "5772": " writes",
  "5773": " proud",
  "5774": "vin",
  "5775": "ml",
  "5776": "mates",
  "5777": " playoff",
  "5778": " guns",
  "5779": " declared",
  "5780": " Jesus",
  "5781": " declined",
  "5782": "ruption",
  "5783": "ownt",
  "5784": " package",
  "5785": " minimum",
  "5786": " Dou",
  "5787": "mond",
  "5788": " NAS",
  "5789": " moral",
  "5790": " factor",
  "5791": " fra",
  "5792": " Cru",
  "5793": "razy",
  "5794": "hered",
  "5795": "],",
  "5796": "Oh",
  "5797": " shouldn",
  "5798": " panel",
  "5799": "respond",
  "5800": "aling",
  "5801": " mode",
  "5802": " Prot",
  "5803": " Michigan",
  "5804": " emergency",
  "5805": " doctor",
  "5806": "64",
  "5807": " id",
  "5808": "nergy",
  "5809": " violent",
  "5810": " thr",
  "5811": "ounded",
  "5812": " matters",
  "5813": " fish",
  "5814": " Ok",
  "5815": " suffered",
  "5816": " SC",
  "5817": "ucks",
  "5818": "olt",
  "5819": " quiet",
  "5820": " client",
  "5821": " admitted",
  "5822": "plom",
  "5823": " approved",
  "5824": " 48",
  "5825": " Spr",
  "5826": " Andrew",
  "5827": " perspective",
  "5828": " loved",
  "5829": " disappoint",
  "5830": "asure",
  "5831": " proced",
  "5832": " injured",
  "5833": " crack",
  "5834": "zer",
  "5835": " hol",
  "5836": " construct",
  "5837": " coff",
  "5838": " Mem",
  "5839": "ributed",
  "5840": "amin",
  "5841": "PD",
  "5842": " ordered",
  "5843": " injuries",
  "5844": " circumst",
  "5845": " argue",
  "5846": " Turkey",
  "5847": " Rad",
  "5848": " ongoing",
  "5849": " plants",
  "5850": " Today",
  "5851": " 37",
  "5852": "odd",
  "5853": "cons",
  "5854": " delivered",
  "5855": " 38",
  "5856": " quarterback",
  "5857": " CNN",
  "5858": "nell",
  "5859": "care",
  "5860": " Squ",
  "5861": " substant",
  "5862": " franch",
  "5863": " aid",
  "5864": " technical",
  "5865": " Lake",
  "5866": " trouble",
  "5867": " Open",
  "5868": "isters",
  "5869": "aints",
  "5870": " responded",
  "5871": "pet",
  "5872": "Rep",
  "5873": " mort",
  "5874": " apps",
  "5875": " Tal",
  "5876": " walking",
  "5877": " missed",
  "5878": " Scot",
  "5879": " Jul",
  "5880": "evin",
  "5881": "can",
  "5882": "De",
  "5883": " numerous",
  "5884": " appropriate",
  "5885": " typically",
  "5886": " mir",
  "5887": " lob",
  "5888": " burn",
  "5889": " activists",
  "5890": "Am",
  "5891": " calcul",
  "5892": " readers",
  "5893": " stands",
  "5894": " renew",
  "5895": "acr",
  "5896": " tourn",
  "5897": " emphas",
  "5898": " delay",
  "5899": " suit",
  "5900": "enture",
  "5901": "ban",
  "5902": " discrim",
  "5903": " Yet",
  "5904": " updates",
  "5905": " capable",
  "5906": " talent",
  "5907": " thoughts",
  "5908": " Saud",
  "5909": "Over",
  "5910": " confidence",
  "5911": " RE",
  "5912": " offense",
  "5913": " architect",
  "5914": "02",
  "5915": "ogue",
  "5916": " forg",
  "5917": "idel",
  "5918": "elly",
  "5919": " newspaper",
  "5920": "allas",
  "5921": " tradition",
  "5922": " enemy",
  "5923": "col",
  "5924": "oty",
  "5925": "amm",
  "5926": " institutions",
  "5927": ",’",
  "5928": " subsequ",
  "5929": " materials",
  "5930": " Charl",
  "5931": " findings",
  "5932": " depart",
  "5933": " AT",
  "5934": "ó",
  "5935": " gra",
  "5936": " excell",
  "5937": " sets",
  "5938": " confident",
  "5939": "iger",
  "5940": " reportedly",
  "5941": " listed",
  "5942": "hab",
  "5943": " secretary",
  "5944": "inet",
  "5945": "oves",
  "5946": " connected",
  "5947": " advice",
  "5948": "LE",
  "5949": "dule",
  "5950": " increases",
  "5951": " bull",
  "5952": " BBC",
  "5953": "%)",
  "5954": " weather",
  "5955": " Harry",
  "5956": "ilty",
  "5957": " session",
  "5958": " default",
  "5959": " editor",
  "5960": " accompl",
  "5961": "edd",
  "5962": " everybody",
  "5963": " Rev",
  "5964": " Seattle",
  "5965": " Grand",
  "5966": "ishes",
  "5967": "ilit",
  "5968": " prompt",
  "5969": " Christmas",
  "5970": "rid",
  "5971": " pitch",
  "5972": " explains",
  "5973": " Ma",
  "5974": "asp",
  "5975": " rot",
  "5976": " filled",
  "5977": " alcohol",
  "5978": " forget",
  "5979": "li",
  "5980": "During",
  "5981": " expansion",
  "5982": " Week",
  "5983": " tun",
  "5984": " protests",
  "5985": " centre",
  "5986": " atmosp",
  "5987": "athan",
  "5988": " rail",
  "5989": " entertain",
  "5990": "unte",
  "5991": " transform",
  "5992": " Georg",
  "5993": " Follow",
  "5994": "oken",
  "5995": " tech",
  "5996": "43",
  "5997": " Techn",
  "5998": "called",
  "5999": " threats",
  "6000": " practices",
  "6001": "í",
  "6002": "abled",
  "6003": " hell",
  "6004": "ache",
  "6005": " messages",
  "6006": " route",
  "6007": " iPh",
  "6008": " eval",
  "6009": " Sum",
  "6010": " Av",
  "6011": " flood",
  "6012": " Ireland",
  "6013": "41",
  "6014": " prin",
  "6015": " mand",
  "6016": "illy",
  "6017": "arden",
  "6018": "apter",
  "6019": " statements",
  "6020": "razil",
  "6021": " Read",
  "6022": " Sign",
  "6023": "adow",
  "6024": "PR",
  "6025": " wear",
  "6026": " Penn",
  "6027": " Director",
  "6028": "uls",
  "6029": "American",
  "6030": " Roman",
  "6031": "uations",
  "6032": "inals",
  "6033": " 2001",
  "6034": "95",
  "6035": " Columb",
  "6036": " buildings",
  "6037": " behavi",
  "6038": "sex",
  "6039": "enda",
  "6040": " patient",
  "6041": " effectively",
  "6042": " publicly",
  "6043": " household",
  "6044": "apping",
  "6045": " virtual",
  "6046": " reporting",
  "6047": " Gen",
  "6048": " basket",
  "6049": "unction",
  "6050": " Jews",
  "6051": " advanced",
  "6052": " sam",
  "6053": "rant",
  "6054": "eds",
  "6055": " coord",
  "6056": " discl",
  "6057": " valid",
  "6058": " sad",
  "6059": " powers",
  "6060": "sts",
  "6061": "resents",
  "6062": " bond",
  "6063": "=\"",
  "6064": " cooper",
  "6065": "ooth",
  "6066": "OD",
  "6067": " sym",
  "6068": " confirm",
  "6069": " label",
  "6070": " Fe",
  "6071": "inent",
  "6072": " facts",
  "6073": " Prem",
  "6074": "Other",
  "6075": " announcement",
  "6076": " af",
  "6077": " rein",
  "6078": " lawsuit",
  "6079": " Lib",
  "6080": " incor",
  "6081": " examples",
  "6082": "estival",
  "6083": " 2003",
  "6084": "uous",
  "6085": " scheduled",
  "6086": " nations",
  "6087": "Follow",
  "6088": "App",
  "6089": " emails",
  "6090": " spons",
  "6091": " legit",
  "6092": "oen",
  "6093": "ionally",
  "6094": " realize",
  "6095": " auth",
  "6096": " Ukraine",
  "6097": "ala",
  "6098": " edge",
  "6099": " Lin",
  "6100": " initially",
  "6101": " Rights",
  "6102": "amental",
  "6103": " causes",
  "6104": "aza",
  "6105": "arry",
  "6106": "rum",
  "6107": " rising",
  "6108": "enger",
  "6109": " objects",
  "6110": " networks",
  "6111": " pictures",
  "6112": " Sports",
  "6113": " Year",
  "6114": " stores",
  "6115": " instruct",
  "6116": "ERS",
  "6117": " neither",
  "6118": "iot",
  "6119": "cos",
  "6120": "MA",
  "6121": " athlet",
  "6122": "anes",
  "6123": "Many",
  "6124": " allegations",
  "6125": "agers",
  "6126": "TC",
  "6127": " governor",
  "6128": " classes",
  "6129": " manufacture",
  "6130": " sought",
  "6131": " follows",
  "6132": " perman",
  "6133": " IP",
  "6134": " trib",
  "6135": " Hen",
  "6136": "water",
  "6137": " restaurant",
  "6138": " ourselves",
  "6139": " deaths",
  "6140": " exercise",
  "6141": " van",
  "6142": " magazine",
  "6143": "bur",
  "6144": " suc",
  "6145": " highlight",
  "6146": " ISIS",
  "6147": "tion",
  "6148": "oma",
  "6149": " surprised",
  "6150": " boys",
  "6151": " applied",
  "6152": " remark",
  "6153": " entry",
  "6154": " accepted",
  "6155": "essor",
  "6156": "esome",
  "6157": "ansas",
  "6158": " 49",
  "6159": " cart",
  "6160": " terrorist",
  "6161": " bright",
  "6162": "zona",
  "6163": "uy",
  "6164": "alty",
  "6165": " Watch",
  "6166": " younger",
  "6167": " combination",
  "6168": " armed",
  "6169": " movies",
  "6170": " approx",
  "6171": "ocratic",
  "6172": "ador",
  "6173": " dynam",
  "6174": " bike",
  "6175": " philosoph",
  "6176": " Ill",
  "6177": " shots",
  "6178": "orders",
  "6179": "Res",
  "6180": " lawyer",
  "6181": " native",
  "6182": " Wal",
  "6183": " fort",
  "6184": " YouTube",
  "6185": " Barack",
  "6186": "game",
  "6187": " pool",
  "6188": " myster",
  "6189": " explan",
  "6190": " Second",
  "6191": "scribe",
  "6192": "long",
  "6193": " enh",
  "6194": " radical",
  "6195": " begins",
  "6196": "arters",
  "6197": "aylor",
  "6198": " nearby",
  "6199": " discussed",
  "6200": " 33",
  "6201": " decre",
  "6202": " vari",
  "6203": " debut",
  "6204": " OF",
  "6205": " gather",
  "6206": " breaking",
  "6207": "hetic",
  "6208": " contains",
  "6209": " Image",
  "6210": "Most",
  "6211": " grab",
  "6212": " Work",
  "6213": " Back",
  "6214": "top",
  "6215": " yesterday",
  "6216": " 300",
  "6217": "icing",
  "6218": "Although",
  "6219": " prohib",
  "6220": " Club",
  "6221": "57",
  "6222": " pure",
  "6223": " bag",
  "6224": " articles",
  "6225": " Only",
  "6226": " alt",
  "6227": "usal",
  "6228": "ulture",
  "6229": " subm",
  "6230": " heads",
  "6231": " diagn",
  "6232": " button",
  "6233": " withd",
  "6234": " totally",
  "6235": " flo",
  "6236": " fashion",
  "6237": " ing",
  "6238": "Spe",
  "6239": ",[",
  "6240": " colleagues",
  "6241": " Another",
  "6242": "west",
  "6243": " performed",
  "6244": "orry",
  "6245": "law",
  "6246": "irty",
  "6247": " linked",
  "6248": " desire",
  "6249": " bare",
  "6250": "====",
  "6251": " artist",
  "6252": " Catholic",
  "6253": "stood",
  "6254": " democracy",
  "6255": "ali",
  "6256": "Cont",
  "6257": " thinks",
  "6258": " TO",
  "6259": " pra",
  "6260": " motor",
  "6261": " essentially",
  "6262": " moves",
  "6263": "66",
  "6264": " receiving",
  "6265": " anywhere",
  "6266": " diplom",
  "6267": " schol",
  "6268": " Aff",
  "6269": " warned",
  "6270": " System",
  "6271": " tow",
  "6272": " Vict",
  "6273": "UR",
  "6274": " temperature",
  "6275": " necessarily",
  "6276": " metal",
  "6277": " leaves",
  "6278": " adds",
  "6279": "iami",
  "6280": "erry",
  "6281": " vacc",
  "6282": " succeed",
  "6283": " experiences",
  "6284": " consistent",
  "6285": " Old",
  "6286": "phy",
  "6287": "ideo",
  "6288": " roughly",
  "6289": " entered",
  "6290": " warning",
  "6291": " abandon",
  "6292": "onna",
  "6293": " faced",
  "6294": " Walk",
  "6295": "ollywood",
  "6296": "ician",
  "6297": "acle",
  "6298": " improved",
  "6299": " historical",
  "6300": " existence",
  "6301": " cert",
  "6302": " Cle",
  "6303": "whel",
  "6304": "See",
  "6305": " parliament",
  "6306": " blow",
  "6307": " interpret",
  "6308": " Men",
  "6309": "FP",
  "6310": " resolution",
  "6311": " journey",
  "6312": " dial",
  "6313": " immigrants",
  "6314": "greg",
  "6315": " 34",
  "6316": " links",
  "6317": " holds",
  "6318": " sav",
  "6319": " represents",
  "6320": " ride",
  "6321": " guilty",
  "6322": " Brazil",
  "6323": "twitter",
  "6324": "May",
  "6325": "Qu",
  "6326": " stream",
  "6327": " input",
  "6328": " warm",
  "6329": " Valley",
  "6330": " Develop",
  "6331": " 1980",
  "6332": " hat",
  "6333": "ship",
  "6334": "awa",
  "6335": " phen",
  "6336": " Kenn",
  "6337": " pushed",
  "6338": " harder",
  "6339": " fewer",
  "6340": " Cast",
  "6341": "icious",
  "6342": "fortunately",
  "6343": " Life",
  "6344": " Board",
  "6345": " targets",
  "6346": " Ken",
  "6347": " consequences",
  "6348": " Whe",
  "6349": " fairly",
  "6350": " creative",
  "6351": " targeted",
  "6352": " returns",
  "6353": " Ms",
  "6354": "rich",
  "6355": " island",
  "6356": " correspond",
  "6357": " classic",
  "6358": "oked",
  "6359": "Then",
  "6360": "08",
  "6361": " rally",
  "6362": " doctors",
  "6363": " Cub",
  "6364": " stood",
  "6365": " joint",
  "6366": " brings",
  "6367": " currency",
  "6368": " Hist",
  "6369": "Yes",
  "6370": "68",
  "6371": " Die",
  "6372": " bon",
  "6373": "ua",
  "6374": " row",
  "6375": " lie",
  "6376": "rip",
  "6377": "En",
  "6378": " Plan",
  "6379": " Exp",
  "6380": "iques",
  "6381": " investors",
  "6382": " Romney",
  "6383": "xy",
  "6384": " knowing",
  "6385": " Miller",
  "6386": "',",
  "6387": " manner",
  "6388": " intention",
  "6389": "word",
  "6390": " Asia",
  "6391": "Can",
  "6392": " wins",
  "6393": " vice",
  "6394": " heavily",
  "6395": " fill",
  "6396": "TS",
  "6397": " strange",
  "6398": " scored",
  "6399": "ocation",
  "6400": " Games",
  "6401": " shop",
  "6402": " facility",
  "6403": " datab",
  "6404": " storage",
  "6405": " relationships",
  "6406": " west",
  "6407": " hoping",
  "6408": "cho",
  "6409": "ulous",
  "6410": "born",
  "6411": " earned",
  "6412": " subsid",
  "6413": " formed",
  "6414": " hardware",
  "6415": " squad",
  "6416": " replaced",
  "6417": " customer",
  "6418": "orse",
  "6419": "ami",
  "6420": "Se",
  "6421": "ORE",
  "6422": " nav",
  "6423": " hotel",
  "6424": " Each",
  "6425": "comm",
  "6426": " drivers",
  "6427": " depth",
  "6428": " allegedly",
  "6429": " Arizona",
  "6430": "oster",
  "6431": " egg",
  "6432": " reput",
  "6433": " Carl",
  "6434": "andal",
  "6435": "Pol",
  "6436": " tree",
  "6437": " favour",
  "6438": " confront",
  "6439": " Swed",
  "6440": " consumer",
  "6441": " circumstances",
  "6442": " Saudi",
  "6443": "igure",
  "6444": " moments",
  "6445": " mouth",
  "6446": " Its",
  "6447": "sembly",
  "6448": "oming",
  "6449": " experim",
  "6450": "ensus",
  "6451": " sister",
  "6452": " rum",
  "6453": " closely",
  "6454": " Vol",
  "6455": "LA",
  "6456": "78",
  "6457": " shif",
  "6458": " infl",
  "6459": " importance",
  "6460": " ancient",
  "6461": " Sar",
  "6462": "ologist",
  "6463": "foot",
  "6464": "illance",
  "6465": " protesters",
  "6466": " frequently",
  "6467": " Van",
  "6468": " Sky",
  "6469": " Maybe",
  "6470": " opposite",
  "6471": " Fil",
  "6472": " unlikely",
  "6473": " functions",
  "6474": " cab",
  "6475": " Gar",
  "6476": " excellent",
  "6477": " defined",
  "6478": " attacked",
  "6479": " Colorado",
  "6480": " unus",
  "6481": "Donald",
  "6482": " lock",
  "6483": " https",
  "6484": " hur",
  "6485": " dedicated",
  "6486": " Eric",
  "6487": "mes",
  "6488": "acc",
  "6489": " library",
  "6490": " emotional",
  "6491": " Pacific",
  "6492": " somewhat",
  "6493": " matches",
  "6494": " Irish",
  "6495": " mainstream",
  "6496": "def",
  "6497": " Jr",
  "6498": "erences",
  "6499": " fraud",
  "6500": " regulations",
  "6501": " crazy",
  "6502": " songs",
  "6503": " sharing",
  "6504": " chain",
  "6505": "ette",
  "6506": " monit",
  "6507": " Top",
  "6508": "Add",
  "6509": "ellect",
  "6510": " neut",
  "6511": " flag",
  "6512": "duc",
  "6513": " watched",
  "6514": " cheap",
  "6515": " waste",
  "6516": " Elect",
  "6517": "you",
  "6518": " extent",
  "6519": " marketing",
  "6520": " eating",
  "6521": " Wild",
  "6522": " Energy",
  "6523": " pushing",
  "6524": " universe",
  "6525": " essential",
  "6526": " 75",
  "6527": " wal",
  "6528": " observ",
  "6529": "rence",
  "6530": " versions",
  "6531": " pled",
  "6532": " fundamental",
  "6533": " Ol",
  "6534": "chen",
  "6535": " split",
  "6536": " carrying",
  "6537": " Polit",
  "6538": " decline",
  "6539": " alongside",
  "6540": " acknowled",
  "6541": " Putin",
  "6542": " intent",
  "6543": " diet",
  "6544": " congress",
  "6545": " plane",
  "6546": "ockey",
  "6547": "ii",
  "6548": " wave",
  "6549": "iana",
  "6550": "People",
  "6551": "str",
  "6552": "apse",
  "6553": " signing",
  "6554": " grown",
  "6555": " walked",
  "6556": " err",
  "6557": " contest",
  "6558": " iPhone",
  "6559": " Ell",
  "6560": "hus",
  "6561": " Davis",
  "6562": " unknown",
  "6563": " resident",
  "6564": "ati",
  "6565": " sees",
  "6566": " lies",
  "6567": " detailed",
  "6568": " square",
  "6569": " discover",
  "6570": "esc",
  "6571": " Mount",
  "6572": "erves",
  "6573": " newslet",
  "6574": "roit",
  "6575": " bat",
  "6576": " Class",
  "6577": " kit",
  "6578": " cycle",
  "6579": " causing",
  "6580": "uated",
  "6581": "ometimes",
  "6582": "iveness",
  "6583": "irds",
  "6584": " embr",
  "6585": " describe",
  "6586": " buying",
  "6587": " Ital",
  "6588": " Dallas",
  "6589": "ns",
  "6590": "kel",
  "6591": " GM",
  "6592": " zero",
  "6593": " east",
  "6594": " schedule",
  "6595": " empt",
  "6596": " Sov",
  "6597": "opy",
  "6598": "ographic",
  "6599": " medic",
  "6600": " distribution",
  "6601": " Brook",
  "6602": "efully",
  "6603": " 65",
  "6604": "ican",
  "6605": "Two",
  "6606": " trick",
  "6607": " evolution",
  "6608": " NY",
  "6609": " owned",
  "6610": "raham",
  "6611": " downt",
  "6612": " commitment",
  "6613": "woman",
  "6614": "iciency",
  "6615": " suicide",
  "6616": " laugh",
  "6617": " resc",
  "6618": " motion",
  "6619": " isol",
  "6620": " flat",
  "6621": " channel",
  "6622": "ensity",
  "6623": " realized",
  "6624": " industrial",
  "6625": " adults",
  "6626": " acts",
  "6627": "aze",
  "6628": " franchise",
  "6629": "IR",
  "6630": " deals",
  "6631": " Miami",
  "6632": "IF",
  "6633": " promise",
  "6634": " Card",
  "6635": "alo",
  "6636": " Young",
  "6637": "va",
  "6638": " hall",
  "6639": "CE",
  "6640": " simpl",
  "6641": " reward",
  "6642": " opponent",
  "6643": " featured",
  "6644": " volunte",
  "6645": " sending",
  "6646": " Charles",
  "6647": "л",
  "6648": "ugh",
  "6649": "ora",
  "6650": "acking",
  "6651": " Hol",
  "6652": " Right",
  "6653": "chers",
  "6654": "amily",
  "6655": " struck",
  "6656": " liqu",
  "6657": " chairman",
  "6658": "asts",
  "6659": " posts",
  "6660": " meat",
  "6661": "GG",
  "6662": " sky",
  "6663": " relevant",
  "6664": " Brad",
  "6665": " defeat",
  "6666": " Korean",
  "6667": "77",
  "6668": "utch",
  "6669": "ayers",
  "6670": " teachers",
  "6671": " Wat",
  "6672": " inspired",
  "6673": " conver",
  "6674": " tiny",
  "6675": " manage",
  "6676": " dealing",
  "6677": "acter",
  "6678": " observed",
  "6679": " controls",
  "6680": "sole",
  "6681": " snow",
  "6682": " controversial",
  "6683": " comfortable",
  "6684": " Wilson",
  "6685": " Ram",
  "6686": " upcoming",
  "6687": " illust",
  "6688": " battery",
  "6689": " Mot",
  "6690": " Far",
  "6691": "nic",
  "6692": " immediate",
  "6693": " narrow",
  "6694": " Str",
  "6695": " Again",
  "6696": " exciting",
  "6697": " urg",
  "6698": "bel",
  "6699": "BO",
  "6700": " tested",
  "6701": " competitive",
  "6702": "uable",
  "6703": "omin",
  "6704": "boy",
  "6705": " wake",
  "6706": " kinds",
  "6707": " properties",
  "6708": "Or",
  "6709": "****",
  "6710": " Kim",
  "6711": " Aut",
  "6712": " passion",
  "6713": " suffering",
  "6714": " Lord",
  "6715": " sick",
  "6716": " expression",
  "6717": " efficient",
  "6718": " attempted",
  "6719": " flu",
  "6720": " Hel",
  "6721": " Dev",
  "6722": " Cy",
  "6723": "’.",
  "6724": " termin",
  "6725": " authors",
  "6726": "ocket",
  "6727": "inson",
  "6728": " tom",
  "6729": " bug",
  "6730": " Fre",
  "6731": " symbol",
  "6732": " anyway",
  "6733": "rome",
  "6734": "obile",
  "6735": "ppo",
  "6736": "ether",
  "6737": " northern",
  "6738": " explore",
  "6739": " View",
  "6740": " Ann",
  "6741": "ko",
  "6742": "Despite",
  "6743": " repeatedly",
  "6744": " Kevin",
  "6745": "oration",
  "6746": "DS",
  "6747": " selected",
  "6748": " deeply",
  "6749": "kay",
  "6750": "........",
  "6751": " usual",
  "6752": " emissions",
  "6753": " Long",
  "6754": "Rel",
  "6755": " sentence",
  "6756": " crash",
  "6757": " aside",
  "6758": " Services",
  "6759": " sho",
  "6760": " agenda",
  "6761": " NHL",
  "6762": " domin",
  "6763": " acting",
  "6764": " Defense",
  "6765": " literally",
  "6766": " guide",
  "6767": " Enter",
  "6768": "olve",
  "6769": " unemploy",
  "6770": " referred",
  "6771": " output",
  "6772": " opponents",
  "6773": " sustain",
  "6774": " studio",
  "6775": " regional",
  "6776": "sters",
  "6777": " fixed",
  "6778": " cere",
  "6779": "ceived",
  "6780": " volume",
  "6781": " boss",
  "6782": "iki",
  "6783": "Ob",
  "6784": " string",
  "6785": " dry",
  "6786": " mechanism",
  "6787": " involving",
  "6788": "ä",
  "6789": " fighters",
  "6790": " fifth",
  "6791": "gery",
  "6792": " overwhel",
  "6793": " surrounding",
  "6794": " rape",
  "6795": "04",
  "6796": " sample",
  "6797": " cutting",
  "6798": " Women",
  "6799": " disag",
  "6800": " assert",
  "6801": "rations",
  "6802": " destroyed",
  "6803": " actor",
  "6804": "ipl",
  "6805": "burg",
  "6806": "John",
  "6807": " impressive",
  "6808": "verty",
  "6809": "amber",
  "6810": " Jersey",
  "6811": "anges",
  "6812": "umber",
  "6813": " oblig",
  "6814": " noticed",
  "6815": " letters",
  "6816": " Inf",
  "6817": "Like",
  "6818": " updated",
  "6819": " champion",
  "6820": " Stephen",
  "6821": " transp",
  "6822": "88",
  "6823": " ring",
  "6824": " personally",
  "6825": " Econom",
  "6826": " sweet",
  "6827": " shel",
  "6828": " assume",
  "6829": " skill",
  "6830": " poverty",
  "6831": " Boy",
  "6832": "xual",
  "6833": "imp",
  "6834": " uncle",
  "6835": " remote",
  "6836": " mine",
  "6837": " assets",
  "6838": "redit",
  "6839": " worried",
  "6840": " plot",
  "6841": " latter",
  "6842": " Down",
  "6843": "dro",
  "6844": "CA",
  "6845": " gap",
  "6846": "endo",
  "6847": "azi",
  "6848": " puts",
  "6849": "otes",
  "6850": " southern",
  "6851": " folks",
  "6852": " technologies",
  "6853": " suddenly",
  "6854": " Society",
  "6855": "osis",
  "6856": "luding",
  "6857": "bar",
  "6858": " Georgia",
  "6859": " urban",
  "6860": "sea",
  "6861": " alive",
  "6862": "ordan",
  "6863": " rub",
  "6864": "rive",
  "6865": "GBT",
  "6866": " slowly",
  "6867": " Foot",
  "6868": " pip",
  "6869": " maximum",
  "6870": " god",
  "6871": " Contin",
  "6872": "——",
  "6873": "weight",
  "6874": " participants",
  "6875": " dress",
  "6876": " Light",
  "6877": " Cam",
  "6878": "agan",
  "6879": " instru",
  "6880": " constant",
  "6881": " Thanks",
  "6882": " pregn",
  "6883": "ivery",
  "6884": " alg",
  "6885": " promote",
  "6886": " 1970",
  "6887": "cow",
  "6888": " ped",
  "6889": " winter",
  "6890": " protected",
  "6891": "inem",
  "6892": "09",
  "6893": " fees",
  "6894": " 39",
  "6895": " recognize",
  "6896": " license",
  "6897": " baseball",
  "6898": "atell",
  "6899": " selection",
  "6900": " aspects",
  "6901": "rete",
  "6902": "gender",
  "6903": " profit",
  "6904": " moder",
  "6905": " division",
  "6906": " artists",
  "6907": " Di",
  "6908": " resistance",
  "6909": " blame",
  "6910": "PU",
  "6911": " height",
  "6912": " Way",
  "6913": " Dam",
  "6914": " therap",
  "6915": " scheme",
  "6916": " Anth",
  "6917": "otten",
  "6918": " TH",
  "6919": "asks",
  "6920": " wage",
  "6921": " drag",
  "6922": " condem",
  "6923": " Dan",
  "6924": " serving",
  "6925": " reporter",
  "6926": " neighb",
  "6927": "lls",
  "6928": " understood",
  "6929": " escape",
  "6930": " coffee",
  "6931": "ingu",
  "6932": "friend",
  "6933": " Labor",
  "6934": " requirements",
  "6935": " syn",
  "6936": "raid",
  "6937": "fire",
  "6938": " claiming",
  "6939": " Max",
  "6940": "Dr",
  "6941": " arguments",
  "6942": " narr",
  "6943": " forth",
  "6944": " Bat",
  "6945": " Bas",
  "6946": "zy",
  "6947": " Hollywood",
  "6948": "regon",
  "6949": " clients",
  "6950": "igg",
  "6951": "han",
  "6952": "alle",
  "6953": "zens",
  "6954": "onymous",
  "6955": " somehow",
  "6956": " Cruz",
  "6957": "uilding",
  "6958": "________________",
  "6959": " imper",
  "6960": " ideal",
  "6961": "onsin",
  "6962": " ID",
  "6963": " Er",
  "6964": " nomine",
  "6965": " goods",
  "6966": " Company",
  "6967": "67",
  "6968": " merely",
  "6969": "aug",
  "6970": "OC",
  "6971": "isconsin",
  "6972": " sympt",
  "6973": " phenomen",
  "6974": "ura",
  "6975": " Network",
  "6976": "adel",
  "6977": " Nic",
  "6978": "athy",
  "6979": " falling",
  "6980": " category",
  "6981": " ble",
  "6982": " allies",
  "6983": "eping",
  "6984": " properly",
  "6985": " obtained",
  "6986": " communication",
  "6987": " unp",
  "6988": " PR",
  "6989": " retire",
  "6990": " honor",
  "6991": " gaming",
  "6992": " basketball",
  "6993": " femin",
  "6994": "asters",
  "6995": " employee",
  "6996": " Kn",
  "6997": "post",
  "6998": "enders",
  "6999": " locations",
  "7000": " finds",
  "7001": " �",
  "7002": "Per",
  "7003": " somebody",
  "7004": " mistake",
  "7005": " teacher",
  "7006": " evil",
  "7007": " gro",
  "7008": " electricity",
  "7009": " critics",
  "7010": "print",
  "7011": " worldwide",
  "7012": "ciples",
  "7013": " chose",
  "7014": " Bowl",
  "7015": "Sec",
  "7016": " www",
  "7017": " gang",
  "7018": " risks",
  "7019": " approval",
  "7020": " Spanish",
  "7021": "sl",
  "7022": " Southern",
  "7023": "lights",
  "7024": " somewhere",
  "7025": " promised",
  "7026": " phase",
  "7027": " format",
  "7028": "rison",
  "7029": " wid",
  "7030": " Taylor",
  "7031": "igation",
  "7032": " Supp",
  "7033": " Gall",
  "7034": " informed",
  "7035": " Py",
  "7036": "��",
  "7037": " desper",
  "7038": " controlled",
  "7039": " campus",
  "7040": " newly",
  "7041": " choices",
  "7042": "iform",
  "7043": " Hot",
  "7044": " dollar",
  "7045": " \\",
  "7046": "onic",
  "7047": "isan",
  "7048": "Int",
  "7049": " Viet",
  "7050": " Daniel",
  "7051": "owa",
  "7052": "itarian",
  "7053": " welcome",
  "7054": " plastic",
  "7055": " payments",
  "7056": " chosen",
  "7057": " Despite",
  "7058": " 2002",
  "7059": " truck",
  "7060": " surveillance",
  "7061": " definition",
  "7062": " DC",
  "7063": "%,",
  "7064": " theme",
  "7065": " Moore",
  "7066": "cers",
  "7067": " Palestinian",
  "7068": " Joseph",
  "7069": "owed",
  "7070": " encourage",
  "7071": " stretch",
  "7072": " Scotland",
  "7073": "ixt",
  "7074": " Java",
  "7075": "dis",
  "7076": "Any",
  "7077": " tort",
  "7078": " seats",
  "7079": "VER",
  "7080": " Detroit",
  "7081": " Where",
  "7082": " Wars",
  "7083": " Land",
  "7084": "ja",
  "7085": " tournament",
  "7086": " territory",
  "7087": " perfectly",
  "7088": " directed",
  "7089": " payment",
  "7090": " Author",
  "7091": " developer",
  "7092": " Ruby",
  "7093": "oric",
  "7094": " sight",
  "7095": " exposed",
  "7096": "unning",
  "7097": "ta",
  "7098": " officially",
  "7099": " Soviet",
  "7100": " Home",
  "7101": "pool",
  "7102": "////",
  "7103": " equival",
  "7104": " clar",
  "7105": " captured",
  "7106": "sell",
  "7107": "Police",
  "7108": " precise",
  "7109": "acked",
  "7110": " supports",
  "7111": " gotten",
  "7112": "ums",
  "7113": " village",
  "7114": " terrorism",
  "7115": " mayor",
  "7116": " fuck",
  "7117": " Child",
  "7118": " orders",
  "7119": " incredible",
  "7120": " extended",
  "7121": " constit",
  "7122": "nesota",
  "7123": " amounts",
  "7124": " stim",
  "7125": " facilities",
  "7126": " config",
  "7127": "owered",
  "7128": " reasonable",
  "7129": " likes",
  "7130": " intellect",
  "7131": " aggressive",
  "7132": " adapt",
  "7133": " Tw",
  "7134": " stronger",
  "7135": " rejected",
  "7136": " Ford",
  "7137": "aire",
  "7138": "EW",
  "7139": " phr",
  "7140": " drawn",
  "7141": "earing",
  "7142": " returning",
  "7143": "Man",
  "7144": " fold",
  "7145": " Nations",
  "7146": "there",
  "7147": " trading",
  "7148": " threatened",
  "7149": " pilot",
  "7150": " dogs",
  "7151": "rage",
  "7152": "rypt",
  "7153": "orted",
  "7154": "inations",
  "7155": " typical",
  "7156": " routine",
  "7157": " incl",
  "7158": " Stand",
  "7159": "rary",
  "7160": " NASA",
  "7161": "ö",
  "7162": " cyber",
  "7163": " bear",
  "7164": " anymore",
  "7165": " Tit",
  "7166": " Night",
  "7167": "star",
  "7168": "celer",
  "7169": " Best",
  "7170": " bunch",
  "7171": " Rog",
  "7172": " icon",
  "7173": " western",
  "7174": " Nation",
  "7175": " Ep",
  "7176": "lv",
  "7177": "300",
  "7178": " tied",
  "7179": " du",
  "7180": " primarily",
  "7181": " ruled",
  "7182": " bench",
  "7183": " wire",
  "7184": " apartment",
  "7185": " Jun",
  "7186": " Italy",
  "7187": " exhib",
  "7188": " comparison",
  "7189": "iler",
  "7190": " Camer",
  "7191": "EP",
  "7192": " journalists",
  "7193": " communications",
  "7194": " Agency",
  "7195": " resulting",
  "7196": " polls",
  "7197": " Four",
  "7198": " Academ",
  "7199": " regions",
  "7200": " purposes",
  "7201": " capture",
  "7202": " Premier",
  "7203": " Dun",
  "7204": " pic",
  "7205": " estimates",
  "7206": " topic",
  "7207": " titles",
  "7208": " strongly",
  "7209": " regularly",
  "7210": " conclusion",
  "7211": " approximately",
  "7212": " Thank",
  "7213": " pal",
  "7214": " Organ",
  "7215": "iner",
  "7216": "98",
  "7217": " flying",
  "7218": "cles",
  "7219": " sole",
  "7220": "ounter",
  "7221": "Also",
  "7222": " winner",
  "7223": " nobody",
  "7224": " Asian",
  "7225": " thread",
  "7226": " requests",
  "7227": " proof",
  "7228": " extensive",
  "7229": " concluded",
  "7230": " ads",
  "7231": " refugees",
  "7232": " pace",
  "7233": "style",
  "7234": " Special",
  "7235": " Test",
  "7236": "da",
  "7237": " fasc",
  "7238": " extract",
  "7239": " drinking",
  "7240": " Administ",
  "7241": "iro",
  "7242": " Love",
  "7243": " veteran",
  "7244": " bid",
  "7245": " anx",
  "7246": " Bull",
  "7247": "wan",
  "7248": "bell",
  "7249": " collected",
  "7250": "ü",
  "7251": " weird",
  "7252": " punish",
  "7253": "raph",
  "7254": "igen",
  "7255": "active",
  "7256": " assistance",
  "7257": "hent",
  "7258": "ao",
  "7259": " enthus",
  "7260": " driven",
  "7261": " continuing",
  "7262": " atmosphere",
  "7263": "icket",
  "7264": "een",
  "7265": " founder",
  "7266": " fields",
  "7267": " crucial",
  "7268": " Foreign",
  "7269": " Fort",
  "7270": " meetings",
  "7271": " Attorney",
  "7272": "etary",
  "7273": " profile",
  "7274": " param",
  "7275": " Adam",
  "7276": "ilarly",
  "7277": "fall",
  "7278": " province",
  "7279": " inqu",
  "7280": "Because",
  "7281": "otal",
  "7282": "anchester",
  "7283": " Lu",
  "7284": " unw",
  "7285": " adopted",
  "7286": "pected",
  "7287": " houses",
  "7288": "tle",
  "7289": " exists",
  "7290": " comprom",
  "7291": " alert",
  "7292": "lder",
  "7293": " sanctions",
  "7294": " HT",
  "7295": " awesome",
  "7296": " Sk",
  "7297": "hips",
  "7298": " sand",
  "7299": " distinct",
  "7300": "�",
  "7301": " academic",
  "7302": " plug",
  "7303": " estate",
  "7304": " ending",
  "7305": " defence",
  "7306": " programming",
  "7307": " habit",
  "7308": " granted",
  "7309": " Wisconsin",
  "7310": "PG",
  "7311": "\\\\",
  "7312": "58",
  "7313": " viewers",
  "7314": " explanation",
  "7315": " Ut",
  "7316": " Championship",
  "7317": " penalty",
  "7318": "uan",
  "7319": "aed",
  "7320": " reputation",
  "7321": " rival",
  "7322": " End",
  "7323": "icken",
  "7324": "axy",
  "7325": " limits",
  "7326": " decent",
  "7327": " deleg",
  "7328": " constantly",
  "7329": " spin",
  "7330": " bitcoin",
  "7331": "orne",
  "7332": "inding",
  "7333": " racial",
  "7334": " proved",
  "7335": " flex",
  "7336": "CS",
  "7337": " kil",
  "7338": " demands",
  "7339": " database",
  "7340": " writers",
  "7341": " ties",
  "7342": " abortion",
  "7343": " 42",
  "7344": " patterns",
  "7345": " empty",
  "7346": " signal",
  "7347": " brut",
  "7348": " advertising",
  "7349": " Tony",
  "7350": "vy",
  "7351": "essed",
  "7352": "cript",
  "7353": "abis",
  "7354": " duty",
  "7355": " Steven",
  "7356": " Kurd",
  "7357": " innoc",
  "7358": " Arch",
  "7359": " ($",
  "7360": " iron",
  "7361": " tall",
  "7362": " contributed",
  "7363": " Eastern",
  "7364": "olis",
  "7365": "ez",
  "7366": "actions",
  "7367": "Today",
  "7368": " loan",
  "7369": " answers",
  "7370": " Spain",
  "7371": "icer",
  "7372": " Tem",
  "7373": "esy",
  "7374": " feedback",
  "7375": "LL",
  "7376": "06",
  "7377": " warming",
  "7378": " taste",
  "7379": "ifications",
  "7380": " rig",
  "7381": " parking",
  "7382": " Mic",
  "7383": "anny",
  "7384": " entit",
  "7385": "lers",
  "7386": "ems",
  "7387": "\":\"",
  "7388": " hits",
  "7389": " Though",
  "7390": " Hun",
  "7391": " pod",
  "7392": " coalition",
  "7393": " Os",
  "7394": " Hit",
  "7395": " 47",
  "7396": "apes",
  "7397": "agram",
  "7398": " taught",
  "7399": "NC",
  "7400": " complicated",
  "7401": " component",
  "7402": "Rec",
  "7403": " cable",
  "7404": " upper",
  "7405": " solutions",
  "7406": " Moscow",
  "7407": "07",
  "7408": " techniques",
  "7409": " personnel",
  "7410": "rell",
  "7411": "SL",
  "7412": "54",
  "7413": " terrible",
  "7414": " passes",
  "7415": " degrees",
  "7416": " incredibly",
  "7417": " Oregon",
  "7418": " Minnesota",
  "7419": " 150",
  "7420": " brew",
  "7421": " Id",
  "7422": " AR",
  "7423": "HS",
  "7424": " mail",
  "7425": " contem",
  "7426": " Brian",
  "7427": " inspir",
  "7428": " define",
  "7429": " counsel",
  "7430": "ifer",
  "7431": " components",
  "7432": " NBC",
  "7433": "rett",
  "7434": "ogan",
  "7435": "aun",
  "7436": " survive",
  "7437": " stead",
  "7438": " fought",
  "7439": " Ont",
  "7440": " outcome",
  "7441": " stuck",
  "7442": " rating",
  "7443": " hadn",
  "7444": "stone",
  "7445": " roster",
  "7446": " excess",
  "7447": " Pen",
  "7448": "ibilities",
  "7449": "Getty",
  "7450": "Ah",
  "7451": " Josh",
  "7452": " Avenue",
  "7453": " paint",
  "7454": "Once",
  "7455": " surgery",
  "7456": " manip",
  "7457": " raising",
  "7458": " magic",
  "7459": " LGBT",
  "7460": " soul",
  "7461": " narrative",
  "7462": " marked",
  "7463": " Victor",
  "7464": " Turn",
  "7465": "mont",
  "7466": "mod",
  "7467": " worker",
  "7468": " championship",
  "7469": " Balt",
  "7470": " thin",
  "7471": " generate",
  "7472": "pes",
  "7473": "56",
  "7474": "rehens",
  "7475": " situations",
  "7476": " Sea",
  "7477": "log",
  "7478": " neuro",
  "7479": " CIA",
  "7480": " automatically",
  "7481": " Gi",
  "7482": "sm",
  "7483": "rating",
  "7484": " principles",
  "7485": " keeps",
  "7486": " engage",
  "7487": " colon",
  "7488": " bom",
  "7489": " Northern",
  "7490": " tracks",
  "7491": " dozen",
  "7492": "fast",
  "7493": " harass",
  "7494": " conven",
  "7495": " Italian",
  "7496": " Amendment",
  "7497": " scenes",
  "7498": " organized",
  "7499": " consumption",
  "7500": "gun",
  "7501": " vulnerable",
  "7502": " represented",
  "7503": " rus",
  "7504": " lawmakers",
  "7505": " bills",
  "7506": "’,",
  "7507": " Dark",
  "7508": "bec",
  "7509": " 64",
  "7510": "name",
  "7511": " complaint",
  "7512": " Coll",
  "7513": " Bell",
  "7514": " ’",
  "7515": "scape",
  "7516": "inf",
  "7517": "ifies",
  "7518": " enable",
  "7519": " contracts",
  "7520": "ref",
  "7521": " registered",
  "7522": " apolog",
  "7523": " unusual",
  "7524": " elsewhere",
  "7525": " browser",
  "7526": " Jordan",
  "7527": " Jason",
  "7528": " Dar",
  "7529": " Constitution",
  "7530": " mixed",
  "7531": " Cross",
  "7532": " climb",
  "7533": " chart",
  "7534": " accurate",
  "7535": " hole",
  "7536": " desk",
  "7537": " angry",
  "7538": " Bru",
  "7539": " successfully",
  "7540": " Cat",
  "7541": " king",
  "7542": " Pay",
  "7543": "Off",
  "7544": "Fr",
  "7545": " trees",
  "7546": " Civil",
  "7547": "Mean",
  "7548": " Ray",
  "7549": " Iowa",
  "7550": " Care",
  "7551": "pan",
  "7552": "era",
  "7553": "aturally",
  "7554": " phones",
  "7555": " pin",
  "7556": " fake",
  "7557": " employment",
  "7558": "lock",
  "7559": " cameras",
  "7560": " Pan",
  "7561": "Mar",
  "7562": " lawyers",
  "7563": " Real",
  "7564": "itors",
  "7565": " feelings",
  "7566": " anticip",
  "7567": " aver",
  "7568": " 2019",
  "7569": "у",
  "7570": " Nick",
  "7571": " FC",
  "7572": " Circ",
  "7573": " conspir",
  "7574": " assistant",
  "7575": "ima",
  "7576": "abama",
  "7577": " enjoyed",
  "7578": " Look",
  "7579": "ker",
  "7580": " murd",
  "7581": " grant",
  "7582": " depending",
  "7583": " Sn",
  "7584": " Oper",
  "7585": " generated",
  "7586": " bes",
  "7587": " 400",
  "7588": " 1999",
  "7589": "orith",
  "7590": " uncertain",
  "7591": " conscious",
  "7592": "phia",
  "7593": " regardless",
  "7594": " possession",
  "7595": "Inst",
  "7596": "EA",
  "7597": " clubs",
  "7598": " historic",
  "7599": " afraid",
  "7600": " extension",
  "7601": " array",
  "7602": " rarely",
  "7603": " Take",
  "7604": "tes",
  "7605": "aser",
  "7606": "96",
  "7607": " obst",
  "7608": " medium",
  "7609": " boot",
  "7610": " Business",
  "7611": " privile",
  "7612": " affili",
  "7613": "irk",
  "7614": "ilipp",
  "7615": " extrem",
  "7616": " dict",
  "7617": " aimed",
  "7618": "pat",
  "7619": " emerged",
  "7620": " Ah",
  "7621": " accomp",
  "7622": " Mu",
  "7623": "rates",
  "7624": "osa",
  "7625": "ena",
  "7626": "MP",
  "7627": " intense",
  "7628": " chances",
  "7629": " bath",
  "7630": " agric",
  "7631": " stations",
  "7632": " installed",
  "7633": " Kelly",
  "7634": " Zeal",
  "7635": " Henry",
  "7636": " Bry",
  "7637": "rep",
  "7638": " ru",
  "7639": " Global",
  "7640": "irms",
  "7641": "cling",
  "7642": "Com",
  "7643": "adelphia",
  "7644": " negotiations",
  "7645": " compens",
  "7646": "orough",
  "7647": "ogether",
  "7648": " subjects",
  "7649": " finance",
  "7650": " recovery",
  "7651": " grass",
  "7652": "mo",
  "7653": "everal",
  "7654": "abil",
  "7655": " sufficient",
  "7656": " profession",
  "7657": " Still",
  "7658": " Reuters",
  "7659": " MS",
  "7660": " Linux",
  "7661": " Before",
  "7662": "itar",
  "7663": " hidden",
  "7664": " CO",
  "7665": " valuable",
  "7666": " troub",
  "7667": " resulted",
  "7668": "52",
  "7669": " cup",
  "7670": " Sir",
  "7671": "car",
  "7672": "Mc",
  "7673": " spark",
  "7674": " infect",
  "7675": " dozens",
  "7676": " Educ",
  "7677": "prise",
  "7678": " tank",
  "7679": " river",
  "7680": " Ash",
  "7681": " •",
  "7682": " crypt",
  "7683": " je",
  "7684": " index",
  "7685": " equivalent",
  "7686": " Field",
  "7687": "taining",
  "7688": " visited",
  "7689": " ven",
  "7690": " prote",
  "7691": " pounds",
  "7692": " Conf",
  "7693": "mal",
  "7694": " solve",
  "7695": " downtown",
  "7696": "enth",
  "7697": " manufacturing",
  "7698": " expectations",
  "7699": "iscal",
  "7700": " engaged",
  "7701": " DNA",
  "7702": "izz",
  "7703": "ikes",
  "7704": " liked",
  "7705": " funny",
  "7706": " enemies",
  "7707": " describes",
  "7708": " Turk",
  "7709": " permission",
  "7710": " processes",
  "7711": " cited",
  "7712": "ls",
  "7713": "istent",
  "7714": "inity",
  "7715": " courts",
  "7716": " principle",
  "7717": " loud",
  "7718": " Lo",
  "7719": " Live",
  "7720": " yield",
  "7721": " gall",
  "7722": "59",
  "7723": " enorm",
  "7724": "MS",
  "7725": " satell",
  "7726": " permanent",
  "7727": " elite",
  "7728": " Beach",
  "7729": " relief",
  "7730": " fee",
  "7731": " Christians",
  "7732": "idency",
  "7733": " gonna",
  "7734": " busy",
  "7735": " myth",
  "7736": " attended",
  "7737": "list",
  "7738": "idelines",
  "7739": " roles",
  "7740": "upid",
  "7741": " wing",
  "7742": " mel",
  "7743": " gained",
  "7744": " fault",
  "7745": " explicit",
  "7746": "Meanwhile",
  "7747": " thousand",
  "7748": " blocks",
  "7749": " Vis",
  "7750": " Policy",
  "7751": " audio",
  "7752": " Moh",
  "7753": " CBS",
  "7754": " Kent",
  "7755": "agg",
  "7756": "LC",
  "7757": " shares",
  "7758": " mainly",
  "7759": "ules",
  "7760": " operate",
  "7761": " compete",
  "7762": "herent",
  "7763": "imore",
  "7764": " CD",
  "7765": "cr",
  "7766": " Water",
  "7767": " Fair",
  "7768": "portion",
  "7769": " scoring",
  "7770": " disaster",
  "7771": " behalf",
  "7772": " teaching",
  "7773": " discipl",
  "7774": " deeper",
  "7775": "UN",
  "7776": " ticket",
  "7777": " prominent",
  "7778": " nut",
  "7779": " deck",
  "7780": "otted",
  "7781": "UST",
  "7782": " veget",
  "7783": " root",
  "7784": " recip",
  "7785": " comic",
  "7786": " Thus",
  "7787": "oj",
  "7788": "lah",
  "7789": "bal",
  "7790": " indicate",
  "7791": "burgh",
  "7792": " scream",
  "7793": " backed",
  "7794": " 44",
  "7795": "anna",
  "7796": " saved",
  "7797": "%.",
  "7798": " sharp",
  "7799": " delivery",
  "7800": " Senator",
  "7801": " McG",
  "7802": "viously",
  "7803": " Zealand",
  "7804": " Manchester",
  "7805": " Call",
  "7806": " taxp",
  "7807": " bra",
  "7808": "auc",
  "7809": "Dav",
  "7810": " airport",
  "7811": " advis",
  "7812": " uniform",
  "7813": " strikes",
  "7814": " headed",
  "7815": " Pot",
  "7816": "ads",
  "7817": " reduction",
  "7818": " priority",
  "7819": " engineering",
  "7820": "aska",
  "7821": " machines",
  "7822": " OS",
  "7823": " Come",
  "7824": "usive",
  "7825": "ulating",
  "7826": " stable",
  "7827": "arsh",
  "7828": "ML",
  "7829": " websites",
  "7830": "aching",
  "7831": "Us",
  "7832": " Greg",
  "7833": " struggling",
  "7834": " gift",
  "7835": " everywhere",
  "7836": " Food",
  "7837": "ATE",
  "7838": " thick",
  "7839": " ridic",
  "7840": " creates",
  "7841": "quarters",
  "7842": "ifest",
  "7843": " photograph",
  "7844": " Lew",
  "7845": " Coast",
  "7846": "uine",
  "7847": "ilton",
  "7848": " tag",
  "7849": "month",
  "7850": "chain",
  "7851": "adi",
  "7852": " illness",
  "7853": "thew",
  "7854": "ba",
  "7855": " blind",
  "7856": " Diego",
  "7857": " �",
  "7858": " poly",
  "7859": " 55",
  "7860": "found",
  "7861": "TH",
  "7862": " Fred",
  "7863": " withdraw",
  "7864": " 46",
  "7865": "��",
  "7866": "iel",
  "7867": " wonderful",
  "7868": " Football",
  "7869": " walls",
  "7870": " minority",
  "7871": " Royal",
  "7872": " scenario",
  "7873": " participate",
  "7874": " containing",
  "7875": " acceler",
  "7876": " Academy",
  "7877": " losses",
  "7878": "engers",
  "7879": "97",
  "7880": "emen",
  "7881": "Those",
  "7882": "Co",
  "7883": " shortly",
  "7884": " Town",
  "7885": " PS",
  "7886": " 43",
  "7887": " corruption",
  "7888": "weet",
  "7889": "aron",
  "7890": " collapse",
  "7891": " Parliament",
  "7892": " overse",
  "7893": " flaw",
  "7894": " Anthony",
  "7895": ".\"[",
  "7896": " rose",
  "7897": " sup",
  "7898": " bridge",
  "7899": " algorith",
  "7900": " Atlanta",
  "7901": " ?",
  "7902": "ounced",
  "7903": " Ger",
  "7904": " symptoms",
  "7905": " achieved",
  "7906": " Market",
  "7907": " Invest",
  "7908": " Conference",
  "7909": "ependent",
  "7910": "aning",
  "7911": " magn",
  "7912": " Development",
  "7913": "who",
  "7914": "this",
  "7915": "from",
  "7916": " uncom",
  "7917": " Alabama",
  "7918": " recognition",
  "7919": " portion",
  "7920": " inev",
  "7921": " forever",
  "7922": " arrange",
  "7923": " Tenn",
  "7924": " Major",
  "7925": "ancou",
  "7926": "abs",
  "7927": " movements",
  "7928": " gam",
  "7929": "dem",
  "7930": " Veg",
  "7931": " IT",
  "7932": "pread",
  "7933": "Before",
  "7934": "opher",
  "7935": " wages",
  "7936": " recru",
  "7937": "teen",
  "7938": "away",
  "7939": "oured",
  "7940": "itals",
  "7941": " restrictions",
  "7942": "wr",
  "7943": "profit",
  "7944": "interest",
  "7945": "idespread",
  "7946": "athered",
  "7947": " neutral",
  "7948": " journalist",
  "7949": "ni",
  "7950": " vary",
  "7951": " About",
  "7952": "86",
  "7953": " beliefs",
  "7954": " Stone",
  "7955": " SP",
  "7956": "yard",
  "7957": "))",
  "7958": " scholars",
  "7959": " laid",
  "7960": " lists",
  "7961": " convin",
  "7962": " upset",
  "7963": " Program",
  "7964": " Has",
  "7965": "ione",
  "7966": " sacr",
  "7967": " discrimination",
  "7968": " deliber",
  "7969": "aus",
  "7970": "400",
  "7971": " behaviour",
  "7972": " structures",
  "7973": " founded",
  "7974": "inking",
  "7975": " Bang",
  "7976": " spr",
  "7977": " interviews",
  "7978": " recording",
  "7979": "oenix",
  "7980": "ancouver",
  "7981": " reducing",
  "7982": " Win",
  "7983": " Oak",
  "7984": " rely",
  "7985": " nominee",
  "7986": "ogen",
  "7987": " Haj",
  "7988": " tip",
  "7989": " ren",
  "7990": " implementation",
  "7991": " banned",
  "7992": " ownership",
  "7993": " Music",
  "7994": "etime",
  "7995": " ethnic",
  "7996": " Philipp",
  "7997": "inder",
  "7998": "53",
  "7999": " tackle",
  "8000": "icking",
  "8001": "Col",
  "8002": " Review",
  "8003": " Philadelphia",
  "8004": " tur",
  "8005": " interface",
  "8006": " eastern",
  "8007": " doors",
  "8008": "po",
  "8009": " suggesting",
  "8010": " steel",
  "8011": " computers",
  "8012": "lete",
  "8013": " remem",
  "8014": " indicated",
  "8015": " Mid",
  "8016": "mann",
  "8017": "flix",
  "8018": " ocean",
  "8019": "ye",
  "8020": "uction",
  "8021": " hired",
  "8022": " barely",
  "8023": "rative",
  "8024": "rous",
  "8025": "rolled",
  "8026": "omething",
  "8027": " drawing",
  "8028": " Point",
  "8029": "heast",
  "8030": "front",
  "8031": "elect",
  "8032": "Pr",
  "8033": " convicted",
  "8034": " Nob",
  "8035": " ABC",
  "8036": "ashes",
  "8037": "Star",
  "8038": " trained",
  "8039": " intellectual",
  "8040": " formal",
  "8041": " progressive",
  "8042": " Hay",
  "8043": "ouch",
  "8044": "angel",
  "8045": " edition",
  "8046": " VR",
  "8047": "Ed",
  "8048": " destruction",
  "8049": " legend",
  "8050": " dinner",
  "8051": " Anton",
  "8052": " touchdown",
  "8053": " Emp",
  "8054": "asion",
  "8055": "arrass",
  "8056": " Rose",
  "8057": "osexual",
  "8058": " visible",
  "8059": " Saf",
  "8060": "HA",
  "8061": " shock",
  "8062": " cos",
  "8063": " Series",
  "8064": " reaching",
  "8065": " genetic",
  "8066": " Perhaps",
  "8067": "ester",
  "8068": "antic",
  "8069": " wheel",
  "8070": " establishment",
  "8071": " widespread",
  "8072": " lights",
  "8073": " county",
  "8074": " Hom",
  "8075": "world",
  "8076": "lessly",
  "8077": " strict",
  "8078": "gent",
  "8079": " corporations",
  "8080": " Full",
  "8081": " reprodu",
  "8082": " Op",
  "8083": "she",
  "8084": "Sm",
  "8085": " begun",
  "8086": " NSA",
  "8087": " Dead",
  "8088": "izon",
  "8089": " elev",
  "8090": " concert",
  "8091": "Me",
  "8092": " foundation",
  "8093": " contained",
  "8094": "lan",
  "8095": " terr",
  "8096": " propag",
  "8097": " fantasy",
  "8098": " bub",
  "8099": " Snow",
  "8100": " friendly",
  "8101": "maker",
  "8102": "aying",
  "8103": " versus",
  "8104": " philosophy",
  "8105": " Further",
  "8106": " farmers",
  "8107": " Greek",
  "8108": " framework",
  "8109": " Patrick",
  "8110": "ked",
  "8111": " corn",
  "8112": "lahoma",
  "8113": "RI",
  "8114": "President",
  "8115": " thrown",
  "8116": " Judge",
  "8117": " Fund",
  "8118": " ju",
  "8119": " convinced",
  "8120": " Lind",
  "8121": "olen",
  "8122": "bro",
  "8123": " toler",
  "8124": " processing",
  "8125": " joining",
  "8126": " entering",
  "8127": " Radio",
  "8128": " Rus",
  "8129": " Rick",
  "8130": "Look",
  "8131": " util",
  "8132": " exposure",
  "8133": " devast",
  "8134": " awareness",
  "8135": " Ins",
  "8136": "pload",
  "8137": " burd",
  "8138": "page",
  "8139": "leveland",
  "8140": " independence",
  "8141": " finger",
  "8142": " McCain",
  "8143": " Es",
  "8144": "xic",
  "8145": " Mayor",
  "8146": " rapidly",
  "8147": " disagree",
  "8148": " Po",
  "8149": "sylv",
  "8150": " unemployment",
  "8151": " concrete",
  "8152": " challenging",
  "8153": " steal",
  "8154": " notion",
  "8155": " loyal",
  "8156": " genuine",
  "8157": " footage",
  "8158": "riers",
  "8159": "rical",
  "8160": "cription",
  "8161": " jury",
  "8162": " citizen",
  "8163": " cha",
  "8164": " Albert",
  "8165": "ho",
  "8166": "amsung",
  "8167": "::",
  "8168": " transgender",
  "8169": " minds",
  "8170": " Three",
  "8171": " 41",
  "8172": "89",
  "8173": " robot",
  "8174": " rook",
  "8175": " moon",
  "8176": " deputy",
  "8177": "making",
  "8178": "Under",
  "8179": "2016",
  "8180": " unclear",
  "8181": " racist",
  "8182": " Ministry",
  "8183": " Mir",
  "8184": " Little",
  "8185": "51",
  "8186": " resource",
  "8187": " Pack",
  "8188": " smoke",
  "8189": " invited",
  "8190": "Ne",
  "8191": " recognized",
  "8192": " invent",
  "8193": "76",
  "8194": " initiative",
  "8195": "oding",
  "8196": " skept",
  "8197": " firms",
  "8198": "power",
  "8199": " hitting",
  "8200": " Medical",
  "8201": "About",
  "8202": " tickets",
  "8203": " fiction",
  "8204": " carefully",
  "8205": " Tour",
  "8206": " Centre",
  "8207": " technique",
  "8208": "repre",
  "8209": " recover",
  "8210": "imm",
  "8211": "TP",
  "8212": " vital",
  "8213": " proven",
  "8214": " hardly",
  "8215": " IM",
  "8216": " welf",
  "8217": " tor",
  "8218": " retired",
  "8219": " mining",
  "8220": " Note",
  "8221": "eman",
  "8222": " exclusive",
  "8223": " Education",
  "8224": " Administration",
  "8225": "pa",
  "8226": "obs",
  "8227": "esh",
  "8228": " outs",
  "8229": " alien",
  "8230": " Hell",
  "8231": "rec",
  "8232": " comprehens",
  "8233": " attached",
  "8234": "Sub",
  "8235": "74",
  "8236": " prosec",
  "8237": " episodes",
  "8238": "udes",
  "8239": " stadium",
  "8240": " democratic",
  "8241": " Scient",
  "8242": " Cur",
  "8243": " Ale",
  "8244": "Te",
  "8245": " substantial",
  "8246": " ships",
  "8247": "alling",
  "8248": "sylvania",
  "8249": " photograp",
  "8250": " logic",
  "8251": " anybody",
  "8252": " 52",
  "8253": "iability",
  "8254": "door",
  "8255": " shr",
  "8256": " discovery",
  "8257": " collective",
  "8258": " 1998",
  "8259": "ー",
  "8260": " welfare",
  "8261": " pig",
  "8262": " equally",
  "8263": "reprene",
  "8264": "ources",
  "8265": "Note",
  "8266": " speaks",
  "8267": " elig",
  "8268": " colors",
  "8269": " association",
  "8270": " ESP",
  "8271": " CA",
  "8272": " receiver",
  "8273": " inflation",
  "8274": " ho",
  "8275": " Santa",
  "8276": " ultimate",
  "8277": " intervention",
  "8278": " cogn",
  "8279": "iley",
  "8280": " Gov",
  "8281": "usted",
  "8282": " subsequent",
  "8283": " producer",
  "8284": " borrow",
  "8285": " featuring",
  "8286": " Marc",
  "8287": " settle",
  "8288": " AD",
  "8289": "umes",
  "8290": " scandal",
  "8291": " premium",
  "8292": " handful",
  "8293": " Kingdom",
  "8294": " Baltimore",
  "8295": "inois",
  "8296": " regulation",
  "8297": " Season",
  "8298": " Ret",
  "8299": " expanded",
  "8300": " dance",
  "8301": " campaigns",
  "8302": "ria",
  "8303": " wars",
  "8304": " synt",
  "8305": " humanity",
  "8306": "owing",
  "8307": " trem",
  "8308": " prisoners",
  "8309": " complaints",
  "8310": " 1960",
  "8311": "к",
  "8312": "oval",
  "8313": " improvements",
  "8314": " fallen",
  "8315": " asks",
  "8316": "cific",
  "8317": " papers",
  "8318": " hide",
  "8319": "aret",
  "8320": " reven",
  "8321": " clothes",
  "8322": " Key",
  "8323": " plate",
  "8324": " incorpor",
  "8325": " diversity",
  "8326": " anger",
  "8327": " Arm",
  "8328": "uma",
  "8329": "intendo",
  "8330": " soph",
  "8331": " OK",
  "8332": " HD",
  "8333": "uce",
  "8334": "oga",
  "8335": "eneration",
  "8336": "appy",
  "8337": " prepare",
  "8338": " Ott",
  "8339": " Hor",
  "8340": " hook",
  "8341": " exceed",
  "8342": " disturb",
  "8343": " Columbia",
  "8344": "etts",
  "8345": " sensitive",
  "8346": " reviews",
  "8347": " km",
  "8348": " fears",
  "8349": " Navy",
  "8350": "writ",
  "8351": " suspected",
  "8352": " brothers",
  "8353": "\",\"",
  "8354": " advocates",
  "8355": "uted",
  "8356": " smooth",
  "8357": " purchased",
  "8358": " entertainment",
  "8359": " embarrass",
  "8360": " Vancouver",
  "8361": " Portland",
  "8362": "umer",
  "8363": "ropri",
  "8364": "iano",
  "8365": " exception",
  "8366": " Next",
  "8367": "mate",
  "8368": "Script",
  "8369": "Related",
  "8370": " respectively",
  "8371": " extend",
  "8372": " controversy",
  "8373": "rators",
  "8374": " Denver",
  "8375": "!)",
  "8376": " crop",
  "8377": " NAT",
  "8378": "uper",
  "8379": "then",
  "8380": "iti",
  "8381": " constitutional",
  "8382": " ON",
  "8383": "ommod",
  "8384": "jo",
  "8385": "eland",
  "8386": " upgrade",
  "8387": " tone",
  "8388": " producing",
  "8389": "Russ",
  "8390": " viewed",
  "8391": " testim",
  "8392": " incent",
  "8393": " gear",
  "8394": " fulf",
  "8395": " contribute",
  "8396": "achus",
  "8397": " serves",
  "8398": " overwhelming",
  "8399": " homeless",
  "8400": " Latin",
  "8401": " attacking",
  "8402": "iversary",
  "8403": " shame",
  "8404": " involvement",
  "8405": " fab",
  "8406": " Luc",
  "8407": " Jay",
  "8408": " Hind",
  "8409": "des",
  "8410": " scores",
  "8411": " unex",
  "8412": "ultural",
  "8413": "azz",
  "8414": " salary",
  "8415": " representative",
  "8416": " cannabis",
  "8417": " Environment",
  "8418": " Dig",
  "8419": " Bh",
  "8420": "amac",
  "8421": " dynamic",
  "8422": " Action",
  "8423": " tail",
  "8424": " peak",
  "8425": " grounds",
  "8426": "ل",
  "8427": "ca",
  "8428": " dramatic",
  "8429": " Golden",
  "8430": " Did",
  "8431": "++",
  "8432": " throwing",
  "8433": "wered",
  "8434": "GO",
  "8435": " description",
  "8436": "mad",
  "8437": " perpet",
  "8438": " counts",
  "8439": " offices",
  "8440": " involves",
  "8441": " Report",
  "8442": "Will",
  "8443": " Howard",
  "8444": "mission",
  "8445": " electronic",
  "8446": " bureau",
  "8447": " Pent",
  "8448": "text",
  "8449": " referring",
  "8450": " rif",
  "8451": " History",
  "8452": "RL",
  "8453": " Such",
  "8454": "worth",
  "8455": "'.",
  "8456": " depression",
  "8457": " Never",
  "8458": "ictions",
  "8459": " puzz",
  "8460": " hang",
  "8461": " external",
  "8462": " disrupt",
  "8463": " brill",
  "8464": " attitude",
  "8465": "vision",
  "8466": "ogs",
  "8467": " normally",
  "8468": " listening",
  "8469": " Disney",
  "8470": " stayed",
  "8471": " recommended",
  "8472": " monthly",
  "8473": " medicine",
  "8474": " investigating",
  "8475": " Sat",
  "8476": "geon",
  "8477": "annels",
  "8478": " ignore",
  "8479": " frag",
  "8480": " 1996",
  "8481": "</",
  "8482": " connections",
  "8483": " alter",
  "8484": " accus",
  "8485": "phones",
  "8486": "dney",
  "8487": " enormous",
  "8488": " astron",
  "8489": " rational",
  "8490": " publication",
  "8491": " Pennsylvania",
  "8492": " estimate",
  "8493": " FA",
  "8494": " Arabia",
  "8495": "uits",
  "8496": "eria",
  "8497": "acon",
  "8498": "acco",
  "8499": " efficiency",
  "8500": " Square",
  "8501": " Cleveland",
  "8502": " �",
  "8503": "achusetts",
  "8504": " languages",
  "8505": " bail",
  "8506": "ira",
  "8507": " virtually",
  "8508": " statistics",
  "8509": " raw",
  "8510": " Revolution",
  "8511": " Ly",
  "8512": " Code",
  "8513": "rot",
  "8514": "html",
  "8515": "PP",
  "8516": " quote",
  "8517": " licens",
  "8518": " stupid",
  "8519": " samples",
  "8520": " inject",
  "8521": " Queen",
  "8522": " Harris",
  "8523": " sugar",
  "8524": " menu",
  "8525": " casual",
  "8526": " List",
  "8527": " Jac",
  "8528": "ologists",
  "8529": "85",
  "8530": " march",
  "8531": "core",
  "8532": " suffer",
  "8533": " liquid",
  "8534": " amid",
  "8535": " abst",
  "8536": " Walker",
  "8537": " Ext",
  "8538": " affairs",
  "8539": " Roy",
  "8540": " Pitt",
  "8541": "ective",
  "8542": " princip",
  "8543": " conce",
  "8544": " admit",
  "8545": "ito",
  "8546": "iry",
  "8547": "SI",
  "8548": " Bad",
  "8549": "fare",
  "8550": " screens",
  "8551": " personality",
  "8552": " hint",
  "8553": "case",
  "8554": "SD",
  "8555": " yellow",
  "8556": " temperatures",
  "8557": " lowest",
  "8558": " holiday",
  "8559": "ndum",
  "8560": "itionally",
  "8561": "hour",
  "8562": "ds",
  "8563": "annon",
  "8564": " salt",
  "8565": " ranked",
  "8566": " authent",
  "8567": " Allen",
  "8568": "olph",
  "8569": "iverpool",
  "8570": "igrant",
  "8571": " remarks",
  "8572": " accommod",
  "8573": " Brother",
  "8574": " 1997",
  "8575": "senal",
  "8576": "amacare",
  "8577": "Black",
  "8578": " origin",
  "8579": " ingred",
  "8580": "rapped",
  "8581": " jur",
  "8582": " Rand",
  "8583": "の",
  "8584": "mary",
  "8585": " flash",
  "8586": " Oklahoma",
  "8587": " Museum",
  "8588": " surf",
  "8589": " presum",
  "8590": " plain",
  "8591": " implemented",
  "8592": " Professor",
  "8593": "CT",
  "8594": " visitors",
  "8595": " unions",
  "8596": " sorry",
  "8597": " rom",
  "8598": " luck",
  "8599": " fiscal",
  "8600": " ESPN",
  "8601": " rural",
  "8602": " pump",
  "8603": " overt",
  "8604": " heading",
  "8605": "unes",
  "8606": "Che",
  "8607": " transportation",
  "8608": " missile",
  "8609": " roads",
  "8610": " AND",
  "8611": " Fed",
  "8612": "Where",
  "8613": " trave",
  "8614": " preced",
  "8615": " platforms",
  "8616": " chapter",
  "8617": " Head",
  "8618": " Ali",
  "8619": "yo",
  "8620": "essel",
  "8621": " gathered",
  "8622": " Family",
  "8623": "uties",
  "8624": "arms",
  "8625": "Both",
  "8626": "69",
  "8627": " terrorists",
  "8628": " strategic",
  "8629": " legitimate",
  "8630": " encouraged",
  "8631": " attempting",
  "8632": " 53",
  "8633": "lad",
  "8634": "abet",
  "8635": "GE",
  "8636": " iP",
  "8637": " fro",
  "8638": " console",
  "8639": "cut",
  "8640": " Mean",
  "8641": "�",
  "8642": " waves",
  "8643": " shoulder",
  "8644": " seemingly",
  "8645": " grav",
  "8646": " boat",
  "8647": " arr",
  "8648": " Ref",
  "8649": " Ontario",
  "8650": " Mah",
  "8651": " III",
  "8652": "agic",
  "8653": "News",
  "8654": "FF",
  "8655": " sty",
  "8656": " sevent",
  "8657": " investigate",
  "8658": " Trade",
  "8659": " races",
  "8660": " da",
  "8661": " covers",
  "8662": ".-",
  "8663": " obtain",
  "8664": " drew",
  "8665": "king",
  "8666": " tea",
  "8667": " closing",
  "8668": " clim",
  "8669": "ă",
  "8670": "thon",
  "8671": "abeth",
  "8672": " celeb",
  "8673": " Cre",
  "8674": " universities",
  "8675": " ballot",
  "8676": "cover",
  "8677": " resign",
  "8678": " legs",
  "8679": " Community",
  "8680": "Her",
  "8681": " practical",
  "8682": " improvement",
  "8683": " Turkish",
  "8684": "ystem",
  "8685": "87",
  "8686": "800",
  "8687": "helsea",
  "8688": " ham",
  "8689": " branch",
  "8690": "rator",
  "8691": " appreciate",
  "8692": "ped",
  "8693": "including",
  "8694": "don",
  "8695": " tasks",
  "8696": " depos",
  "8697": " conspiracy",
  "8698": " careful",
  "8699": " Buff",
  "8700": " Illinois",
  "8701": " foss",
  "8702": "�",
  "8703": " tweeted",
  "8704": " mo",
  "8705": " guarantee",
  "8706": "othing",
  "8707": "bi",
  "8708": "Art",
  "8709": " handed",
  "8710": " Master",
  "8711": " Ba",
  "8712": " tomorrow",
  "8713": " providers",
  "8714": "riors",
  "8715": "claim",
  "8716": " firing",
  "8717": " Hard",
  "8718": " Chair",
  "8719": " depends",
  "8720": " consistently",
  "8721": " Stat",
  "8722": " Brew",
  "8723": "iences",
  "8724": " settlement",
  "8725": " conversations",
  "8726": " Ra",
  "8727": " rhet",
  "8728": " discussions",
  "8729": " disorder",
  "8730": " Ren",
  "8731": " Massachusetts",
  "8732": " drama",
  "8733": "bn",
  "8734": " revel",
  "8735": " Intelligence",
  "8736": "aka",
  "8737": " ignored",
  "8738": " horror",
  "8739": " compe",
  "8740": " Without",
  "8741": " NC",
  "8742": " Cooper",
  "8743": " mistakes",
  "8744": " McK",
  "8745": "ported",
  "8746": "aval",
  "8747": "Who",
  "8748": " servers",
  "8749": " register",
  "8750": " portray",
  "8751": "eding",
  "8752": " suspended",
  "8753": " incidents",
  "8754": " distract",
  "8755": " Guardian",
  "8756": " Core",
  "8757": "plete",
  "8758": "HT",
  "8759": " reliable",
  "8760": " phrase",
  "8761": " overs",
  "8762": " extraord",
  "8763": " entitled",
  "8764": " Netflix",
  "8765": " Bridge",
  "8766": "iere",
  "8767": " opinions",
  "8768": " Freedom",
  "8769": "hot",
  "8770": " spaces",
  "8771": " marks",
  "8772": " dub",
  "8773": " Use",
  "8774": " Information",
  "8775": "Ste",
  "8776": " replied",
  "8777": " Check",
  "8778": " threw",
  "8779": " displ",
  "8780": " demonstrated",
  "8781": " Hajime",
  "8782": "ñ",
  "8783": "zed",
  "8784": "ivals",
  "8785": " sin",
  "8786": " passengers",
  "8787": "rets",
  "8788": "Ref",
  "8789": " captain",
  "8790": "iban",
  "8791": " reads",
  "8792": " mountain",
  "8793": " deficit",
  "8794": " Indeed",
  "8795": " layer",
  "8796": " grid",
  "8797": " activist",
  "8798": " Ur",
  "8799": " Matthew",
  "8800": "ntil",
  "8801": "ecut",
  "8802": " gains",
  "8803": "ourse",
  "8804": " inequ",
  "8805": " UFC",
  "8806": "ammed",
  "8807": " mun",
  "8808": " improving",
  "8809": " Technology",
  "8810": " 51",
  "8811": "ificial",
  "8812": "SC",
  "8813": " hockey",
  "8814": " acquired",
  "8815": " NOT",
  "8816": "scale",
  "8817": "##",
  "8818": " twenty",
  "8819": " tries",
  "8820": " landscape",
  "8821": " Unfortunately",
  "8822": "mat",
  "8823": " noting",
  "8824": " judges",
  "8825": " Cameron",
  "8826": "aping",
  "8827": " Tri",
  "8828": " universal",
  "8829": " absence",
  "8830": " 1995",
  "8831": "eries",
  "8832": "\")",
  "8833": " mad",
  "8834": " insisted",
  "8835": " contributions",
  "8836": "ounce",
  "8837": " Which",
  "8838": " Gun",
  "8839": "inch",
  "8840": " objective",
  "8841": " Kennedy",
  "8842": "ompson",
  "8843": " sequence",
  "8844": " ranks",
  "8845": " joke",
  "8846": " Gulf",
  "8847": " Bernie",
  "8848": "vard",
  "8849": "Please",
  "8850": " breaks",
  "8851": "uten",
  "8852": "only",
  "8853": "isp",
  "8854": "72",
  "8855": " restaurants",
  "8856": " predicted",
  "8857": " literature",
  "8858": " failing",
  "8859": " exch",
  "8860": " lucky",
  "8861": " commonly",
  "8862": " WW",
  "8863": " Make",
  "8864": " Kansas",
  "8865": " Ippo",
  "8866": " na",
  "8867": " hung",
  "8868": " Ice",
  "8869": " Conservative",
  "8870": "ihad",
  "8871": "ieties",
  "8872": " usage",
  "8873": " legacy",
  "8874": " ax",
  "8875": " Nintendo",
  "8876": "ington",
  "8877": "Ass",
  "8878": " investigators",
  "8879": "hop",
  "8880": " saving",
  "8881": " highlights",
  "8882": " covering",
  "8883": " Death",
  "8884": "iate",
  "8885": " spokesperson",
  "8886": " protocol",
  "8887": " equality",
  "8888": " dismissed",
  "8889": "plus",
  "8890": "apolis",
  "8891": " virus",
  "8892": " referendum",
  "8893": " Vegas",
  "8894": " Share",
  "8895": " Niger",
  "8896": " fighter",
  "8897": "ijing",
  "8898": "high",
  "8899": " mice",
  "8900": " criticized",
  "8901": " insist",
  "8902": " Phoenix",
  "8903": "keep",
  "8904": " settings",
  "8905": " racism",
  "8906": " documentary",
  "8907": " coaches",
  "8908": " Battle",
  "8909": "https",
  "8910": "Sen",
  "8911": " porn",
  "8912": " horse",
  "8913": " Getty",
  "8914": " %",
  "8915": "73",
  "8916": " violation",
  "8917": " ratings",
  "8918": " fantastic",
  "8919": " divided",
  "8920": "VE",
  "8921": " waters",
  "8922": " centers",
  "8923": " Mexican",
  "8924": "type",
  "8925": "eters",
  "8926": " lands",
  "8927": " falls",
  "8928": " earthqu",
  "8929": " comedy",
  "8930": " channels",
  "8931": " Broad",
  "8932": " Bible",
  "8933": " Ball",
  "8934": "icism",
  "8935": " Expl",
  "8936": " voter",
  "8937": " silver",
  "8938": " milk",
  "8939": " acknowledged",
  "8940": " Jenn",
  "8941": "ught",
  "8942": "79",
  "8943": " ratio",
  "8944": " neck",
  "8945": " euro",
  "8946": " Sydney",
  "8947": " None",
  "8948": " tracking",
  "8949": " partnership",
  "8950": " approached",
  "8951": " Pres",
  "8952": "David",
  "8953": "600",
  "8954": " civilians",
  "8955": " buff",
  "8956": " actors",
  "8957": " responses",
  "8958": " profits",
  "8959": " performing",
  "8960": " naturally",
  "8961": " assigned",
  "8962": " Pass",
  "8963": " Eag",
  "8964": " factory",
  "8965": " Patri",
  "8966": " Cook",
  "8967": " 1994",
  "8968": " petition",
  "8969": " obs",
  "8970": " instrument",
  "8971": " employed",
  "8972": " capabilities",
  "8973": " Austin",
  "8974": "heim",
  "8975": " monitor",
  "8976": "was",
  "8977": "itter",
  "8978": " visiting",
  "8979": " trials",
  "8980": " transactions",
  "8981": " hoped",
  "8982": " Vietnam",
  "8983": " Hospital",
  "8984": "Fl",
  "8985": " studied",
  "8986": " Roberts",
  "8987": " checks",
  "8988": " abandoned",
  "8989": " Kat",
  "8990": " (“",
  "8991": " forest",
  "8992": " adventure",
  "8993": " Las",
  "8994": " Associated",
  "8995": "argo",
  "8996": "abe",
  "8997": " funded",
  "8998": " entr",
  "8999": " ec",
  "9000": " Xbox",
  "9001": "Still",
  "9002": " shit",
  "9003": " locked",
  "9004": " Pop",
  "9005": "ón",
  "9006": "RS",
  "9007": " handling",
  "9008": " entreprene",
  "9009": " Anderson",
  "9010": "izabeth",
  "9011": " swing",
  "9012": " Samsung",
  "9013": " Prop",
  "9014": " Kar",
  "9015": "ocument",
  "9016": " smell",
  "9017": " addressed",
  "9018": "backs",
  "9019": "aeda",
  "9020": "VP",
  "9021": " joy",
  "9022": " Start",
  "9023": "\".[",
  "9024": " jun",
  "9025": " cust",
  "9026": " Beck",
  "9027": " Ap",
  "9028": " ”",
  "9029": " wrest",
  "9030": " tactics",
  "9031": " supplies",
  "9032": " ->",
  "9033": "pled",
  "9034": " Vill",
  "9035": " Atlantic",
  "9036": "zing",
  "9037": "ordon",
  "9038": " scientist",
  "9039": " inner",
  "9040": " cow",
  "9041": " Wik",
  "9042": " DO",
  "9043": " Chron",
  "9044": " stake",
  "9045": " shout",
  "9046": " ramp",
  "9047": " pref",
  "9048": " measured",
  "9049": " innovation",
  "9050": " �",
  "9051": "enh",
  "9052": " letting",
  "9053": " Sony",
  "9054": "gus",
  "9055": " stone",
  "9056": " promises",
  "9057": "irts",
  "9058": " whenever",
  "9059": " stolen",
  "9060": " playoffs",
  "9061": " monitoring",
  "9062": " diverse",
  "9063": " Spring",
  "9064": "dit",
  "9065": "ctr",
  "9066": " symp",
  "9067": " rookie",
  "9068": " ordinary",
  "9069": " midfield",
  "9070": " fruit",
  "9071": " Data",
  "9072": "Back",
  "9073": " musical",
  "9074": " subscrib",
  "9075": " replacement",
  "9076": " reader",
  "9077": " hip",
  "9078": " assessment",
  "9079": "ō",
  "9080": " senator",
  "9081": " butt",
  "9082": " Bureau",
  "9083": "ynch",
  "9084": " mathem",
  "9085": " Warren",
  "9086": "bered",
  "9087": "Post",
  "9088": " nomination",
  "9089": "Part",
  "9090": " sorts",
  "9091": " Scottish",
  "9092": " Photos",
  "9093": " Mississ",
  "9094": "fr",
  "9095": "aki",
  "9096": "Your",
  "9097": "Cons",
  "9098": " spokeswoman",
  "9099": " secondary",
  "9100": " Acc",
  "9101": "mans",
  "9102": " ministry",
  "9103": " Ha",
  "9104": "trans",
  "9105": " warn",
  "9106": " Yeah",
  "9107": " Marsh",
  "9108": " Iraqi",
  "9109": " Ho",
  "9110": "uh",
  "9111": " theat",
  "9112": " lets",
  "9113": " Obamacare",
  "9114": " Friend",
  "9115": "AF",
  "9116": "63",
  "9117": " chat",
  "9118": "they",
  "9119": " forcing",
  "9120": " accomplish",
  "9121": " Bron",
  "9122": "organ",
  "9123": " warrant",
  "9124": " encounter",
  "9125": " assign",
  "9126": " argues",
  "9127": " Abb",
  "9128": "inction",
  "9129": "comes",
  "9130": " distributed",
  "9131": " Taliban",
  "9132": " Moon",
  "9133": " Age",
  "9134": "shire",
  "9135": "jan",
  "9136": "agh",
  "9137": " representing",
  "9138": " programme",
  "9139": " introduce",
  "9140": " differently",
  "9141": " Tro",
  "9142": " Stadium",
  "9143": " €",
  "9144": " tips",
  "9145": " dates",
  "9146": " Wolf",
  "9147": "orous",
  "9148": "itage",
  "9149": "ateral",
  "9150": "Though",
  "9151": " quoted",
  "9152": " Ult",
  "9153": " Az",
  "9154": "dri",
  "9155": "crib",
  "9156": "61",
  "9157": " maintained",
  "9158": " drove",
  "9159": " conventional",
  "9160": " bars",
  "9161": " auto",
  "9162": "ila",
  "9163": " manifest",
  "9164": " maps",
  "9165": "xit",
  "9166": "plate",
  "9167": "encing",
  "9168": " temporary",
  "9169": " congressional",
  "9170": " blocked",
  "9171": " tiss",
  "9172": " noise",
  "9173": " guitar",
  "9174": " deadly",
  "9175": " Carter",
  "9176": "pack",
  "9177": "arity",
  "9178": " arrive",
  "9179": " Gaza",
  "9180": "�",
  "9181": "quest",
  "9182": "ceptions",
  "9183": " importantly",
  "9184": " barrel",
  "9185": " Jonathan",
  "9186": "ounding",
  "9187": " cul",
  "9188": " spoken",
  "9189": " soccer",
  "9190": " silence",
  "9191": " politically",
  "9192": " copies",
  "9193": " Sarah",
  "9194": " weigh",
  "9195": " smoking",
  "9196": " populations",
  "9197": " loans",
  "9198": " athletes",
  "9199": "made",
  "9200": " surely",
  "9201": " revers",
  "9202": " Justin",
  "9203": "section",
  "9204": " urged",
  "9205": " tonight",
  "9206": " introduction",
  "9207": " consent",
  "9208": "umin",
  "9209": "Pre",
  "9210": " swim",
  "9211": " lobby",
  "9212": " hyper",
  "9213": " drone",
  "9214": "ibl",
  "9215": " trigger",
  "9216": " tie",
  "9217": " submitted",
  "9218": " shopping",
  "9219": " bot",
  "9220": " Does",
  "9221": "step",
  "9222": "iy",
  "9223": " lying",
  "9224": " bonus",
  "9225": "jud",
  "9226": " sear",
  "9227": " relax",
  "9228": " guest",
  "9229": " Was",
  "9230": " NATO",
  "9231": " Liverpool",
  "9232": " Der",
  "9233": "assador",
  "9234": " iOS",
  "9235": " headquarters",
  "9236": " experiments",
  "9237": "Facebook",
  "9238": " wealthy",
  "9239": " streaming",
  "9240": " healthcare",
  "9241": " focusing",
  "9242": "2015",
  "9243": " Connect",
  "9244": " Cow",
  "9245": "м",
  "9246": "rient",
  "9247": "oded",
  "9248": "fund",
  "9249": "Yet",
  "9250": "AND",
  "9251": " threatening",
  "9252": " stages",
  "9253": " paralle",
  "9254": " festival",
  "9255": " blast",
  "9256": " Utah",
  "9257": " Sus",
  "9258": " Control",
  "9259": " semi",
  "9260": " Cost",
  "9261": "otype",
  "9262": "essee",
  "9263": "emed",
  "9264": " prepar",
  "9265": " fur",
  "9266": " celebrate",
  "9267": " Plus",
  "9268": " CH",
  "9269": " Ast",
  "9270": "orable",
  "9271": " weekly",
  "9272": " odds",
  "9273": " Sometimes",
  "9274": " Marvel",
  "9275": " popularity",
  "9276": " Girl",
  "9277": " Bra",
  "9278": "yer",
  "9279": "ippi",
  "9280": "SE",
  "9281": " windows",
  "9282": " protecting",
  "9283": " circle",
  "9284": " absor",
  "9285": " Creat",
  "9286": "62",
  "9287": " tape",
  "9288": " roof",
  "9289": " knee",
  "9290": " beauty",
  "9291": " PA",
  "9292": " Dream",
  "9293": " Corpor",
  "9294": "isons",
  "9295": "RC",
  "9296": " hydro",
  "9297": " clock",
  "9298": " Trib",
  "9299": " Dave",
  "9300": " brilliant",
  "9301": " appearances",
  "9302": " Jam",
  "9303": "unity",
  "9304": "rooms",
  "9305": "pton",
  "9306": "pie",
  "9307": "ahu",
  "9308": " spiritual",
  "9309": " pursue",
  "9310": " helpful",
  "9311": " Greece",
  "9312": "vernment",
  "9313": "theless",
  "9314": "olds",
  "9315": "atar",
  "9316": "akh",
  "9317": " wider",
  "9318": " outrage",
  "9319": " innocent",
  "9320": " guards",
  "9321": " creatures",
  "9322": " Kong",
  "9323": " Bon",
  "9324": " proposals",
  "9325": " newsletter",
  "9326": " diseases",
  "9327": " Mill",
  "9328": " MORE",
  "9329": " Beijing",
  "9330": " Ark",
  "9331": " 2020",
  "9332": "aware",
  "9333": " smartphone",
  "9334": " render",
  "9335": " conservatives",
  "9336": " compare",
  "9337": " Dutch",
  "9338": " veterans",
  "9339": " actively",
  "9340": " Common",
  "9341": "irlf",
  "9342": "ials",
  "9343": "bow",
  "9344": " survival",
  "9345": " migrants",
  "9346": " demonstrate",
  "9347": " demanding",
  "9348": " autonom",
  "9349": " Ak",
  "9350": " rooms",
  "9351": " reverse",
  "9352": " arguing",
  "9353": " appointed",
  "9354": " affordable",
  "9355": " Nev",
  "9356": " Low",
  "9357": "through",
  "9358": " unpre",
  "9359": " labour",
  "9360": " kilomet",
  "9361": " brown",
  "9362": "rik",
  "9363": "igenous",
  "9364": " recall",
  "9365": " Lewis",
  "9366": "omes",
  "9367": "irlfriend",
  "9368": "Reuters",
  "9369": " soil",
  "9370": " domain",
  "9371": "itary",
  "9372": "eals",
  "9373": "aved",
  "9374": " hire",
  "9375": "�",
  "9376": "Christ",
  "9377": " questioned",
  "9378": " muscle",
  "9379": " anniversary",
  "9380": "izer",
  "9381": " rush",
  "9382": " picks",
  "9383": " forecast",
  "9384": "held",
  "9385": " thorough",
  "9386": " tens",
  "9387": " investigations",
  "9388": " dying",
  "9389": " cro",
  "9390": " Indiana",
  "9391": "usalem",
  "9392": "archy",
  "9393": "El",
  "9394": " memo",
  "9395": "я",
  "9396": " trillion",
  "9397": " testimony",
  "9398": " eggs",
  "9399": " deserve",
  "9400": " Ross",
  "9401": " Meanwhile",
  "9402": " Gard",
  "9403": "market",
  "9404": " prosecutors",
  "9405": " lux",
  "9406": " Thompson",
  "9407": "mony",
  "9408": "GA",
  "9409": " ages",
  "9410": " Libya",
  "9411": " Iranian",
  "9412": " Crime",
  "9413": " 57",
  "9414": " acid",
  "9415": " AI",
  "9416": "orious",
  "9417": " okay",
  "9418": " arrival",
  "9419": " Tok",
  "9420": "ultane",
  "9421": " phenomenon",
  "9422": " meaningful",
  "9423": " exit",
  "9424": " Sab",
  "9425": " Marine",
  "9426": " Mun",
  "9427": " Engine",
  "9428": "ecutive",
  "9429": "bridge",
  "9430": " releases",
  "9431": " Form",
  "9432": " wounded",
  "9433": " wine",
  "9434": " wedd",
  "9435": " arbit",
  "9436": " Intel",
  "9437": " Among",
  "9438": "ois",
  "9439": " retirement",
  "9440": " loose",
  "9441": " ans",
  "9442": "ederation",
  "9443": " subsc",
  "9444": " signature",
  "9445": " Ten",
  "9446": " Hur",
  "9447": " Cole",
  "9448": " stability",
  "9449": " classified",
  "9450": " cance",
  "9451": "rection",
  "9452": "orship",
  "9453": " targeting",
  "9454": " dust",
  "9455": " Empire",
  "9456": "ocolate",
  "9457": "Story",
  "9458": " spell",
  "9459": " Price",
  "9460": " Mrs",
  "9461": " Graham",
  "9462": "84",
  "9463": " stem",
  "9464": " pointing",
  "9465": " broader",
  "9466": "ylum",
  "9467": "eness",
  "9468": " los",
  "9469": " Set",
  "9470": " Base",
  "9471": "Click",
  "9472": " openly",
  "9473": " deny",
  "9474": " Morgan",
  "9475": "berry",
  "9476": "mers",
  "9477": "Are",
  "9478": " transit",
  "9479": " mini",
  "9480": " buck",
  "9481": " bottle",
  "9482": "ethe",
  "9483": "Sim",
  "9484": " hal",
  "9485": "lla",
  "9486": "ancer",
  "9487": "93",
  "9488": " gif",
  "9489": " collaps",
  "9490": " butter",
  "9491": " abilities",
  "9492": " Hon",
  "9493": "minute",
  "9494": "lined",
  "9495": " settled",
  "9496": " Galaxy",
  "9497": "opyright",
  "9498": "mAh",
  "9499": "FA",
  "9500": " tremend",
  "9501": " passage",
  "9502": " organic",
  "9503": " greatly",
  "9504": " designs",
  "9505": " Fal",
  "9506": " satellite",
  "9507": " requested",
  "9508": " presidency",
  "9509": " persu",
  "9510": " margin",
  "9511": " Fall",
  "9512": " 54",
  "9513": "olves",
  "9514": "PM",
  "9515": " patch",
  "9516": " fool",
  "9517": " Chelsea",
  "9518": "iamond",
  "9519": "athon",
  "9520": " generations",
  "9521": " flags",
  "9522": " Yan",
  "9523": "ela",
  "9524": "Red",
  "9525": " dump",
  "9526": " Toy",
  "9527": " Silver",
  "9528": " Mach",
  "9529": " whereas",
  "9530": " struggled",
  "9531": " donations",
  "9532": " defending",
  "9533": "portation",
  "9534": " scope",
  "9535": " lad",
  "9536": " knife",
  "9537": " dad",
  "9538": " criteria",
  "9539": " comprehensive",
  "9540": " amendment",
  "9541": " Boe",
  "9542": "cedented",
  "9543": "Step",
  "9544": "94",
  "9545": " shadow",
  "9546": " hypothes",
  "9547": "ishop",
  "9548": "conf",
  "9549": "abies",
  "9550": " upload",
  "9551": " gig",
  "9552": "в",
  "9553": "esty",
  "9554": " wanting",
  "9555": " shirt",
  "9556": " savings",
  "9557": " exha",
  "9558": " Management",
  "9559": "enter",
  "9560": "TE",
  "9561": " hosp",
  "9562": " coc",
  "9563": " breath",
  "9564": " WH",
  "9565": " Deb",
  "9566": "igious",
  "9567": " rocket",
  "9568": " persons",
  "9569": " expanding",
  "9570": " enthusi",
  "9571": " childhood",
  "9572": " architecture",
  "9573": " Tele",
  "9574": " Clark",
  "9575": " judgment",
  "9576": " assumed",
  "9577": " Marx",
  "9578": "rior",
  "9579": "Dem",
  "9580": " rebels",
  "9581": " genre",
  "9582": "omed",
  "9583": "ingers",
  "9584": " missions",
  "9585": " bowl",
  "9586": " borders",
  "9587": "author",
  "9588": "ATCH",
  "9589": " Sa",
  "9590": " rear",
  "9591": " protein",
  "9592": " alarm",
  "9593": " Vice",
  "9594": "ilation",
  "9595": "gered",
  "9596": "gage",
  "9597": "acket",
  "9598": " substance",
  "9599": " formation",
  "9600": " Leon",
  "9601": "ь",
  "9602": "ennis",
  "9603": " superior",
  "9604": " inches",
  "9605": " Link",
  "9606": " Iron",
  "9607": "aria",
  "9608": " staying",
  "9609": " stere",
  "9610": " provision",
  "9611": " producers",
  "9612": " capitalism",
  "9613": " aer",
  "9614": " Andre",
  "9615": "ogy",
  "9616": "eh",
  "9617": " −",
  "9618": " ease",
  "9619": " Burn",
  "9620": "ika",
  "9621": "BM",
  "9622": " titled",
  "9623": " stepped",
  "9624": " drives",
  "9625": " consensus",
  "9626": " Alexander",
  "9627": "·",
  "9628": "92",
  "9629": " smile",
  "9630": " rounds",
  "9631": " gross",
  "9632": " coinc",
  "9633": " clothing",
  "9634": " banking",
  "9635": " Maryland",
  "9636": "***",
  "9637": " therapy",
  "9638": " hopefully",
  "9639": " gent",
  "9640": " competing",
  "9641": " Liberal",
  "9642": " Jerusalem",
  "9643": "mic",
  "9644": "bits",
  "9645": "SU",
  "9646": " vig",
  "9647": " striking",
  "9648": " lunch",
  "9649": " backing",
  "9650": "ses",
  "9651": "Watch",
  "9652": " sed",
  "9653": " preparing",
  "9654": " attractive",
  "9655": "utiny",
  "9656": "afe",
  "9657": " vessel",
  "9658": " toxic",
  "9659": " membership",
  "9660": " awarded",
  "9661": "even",
  "9662": "assy",
  "9663": " burning",
  "9664": " Library",
  "9665": " Barb",
  "9666": "instein",
  "9667": "aders",
  "9668": "OK",
  "9669": "ERE",
  "9670": " remarkable",
  "9671": " abroad",
  "9672": "ouri",
  "9673": " killer",
  "9674": " fate",
  "9675": " Governor",
  "9676": "oret",
  "9677": "const",
  "9678": "bing",
  "9679": "after",
  "9680": " YOU",
  "9681": " Medicare",
  "9682": " Harvard",
  "9683": "thood",
  "9684": " tables",
  "9685": " rescue",
  "9686": " answered",
  "9687": " Aud",
  "9688": "roph",
  "9689": "lando",
  "9690": "itol",
  "9691": " reveals",
  "9692": " horr",
  "9693": " fundra",
  "9694": " charity",
  "9695": " anxiety",
  "9696": " Benn",
  "9697": " 120",
  "9698": " );",
  "9699": " discussing",
  "9700": " Ted",
  "9701": " Priv",
  "9702": " Mess",
  "9703": " 95",
  "9704": "asury",
  "9705": " unfair",
  "9706": " unexpected",
  "9707": " spectrum",
  "9708": " graduate",
  "9709": " followers",
  "9710": " cig",
  "9711": " Six",
  "9712": " Eff",
  "9713": "fol",
  "9714": " nic",
  "9715": " gal",
  "9716": " bread",
  "9717": " Hold",
  "9718": "child",
  "9719": " strategies",
  "9720": " Son",
  "9721": " MLS",
  "9722": "ikh",
  "9723": "Comp",
  "9724": " repeat",
  "9725": " Station",
  "9726": " Iv",
  "9727": " 56",
  "9728": "iffs",
  "9729": "Google",
  "9730": " obsc",
  "9731": " Tennessee",
  "9732": "test",
  "9733": "aration",
  "9734": " underlying",
  "9735": " eligible",
  "9736": " Assembly",
  "9737": "NBC",
  "9738": " assass",
  "9739": " Hop",
  "9740": " Capital",
  "9741": " Credit",
  "9742": " Berlin",
  "9743": "erg",
  "9744": "aver",
  "9745": " representatives",
  "9746": " kitchen",
  "9747": " distingu",
  "9748": " consideration",
  "9749": " comics",
  "9750": " Tech",
  "9751": " spots",
  "9752": " inspect",
  "9753": " info",
  "9754": " tons",
  "9755": " riding",
  "9756": " psychiat",
  "9757": " manufacturers",
  "9758": " Sean",
  "9759": " Exper",
  "9760": " ).",
  "9761": "some",
  "9762": "ormal",
  "9763": "izza",
  "9764": "Ke",
  "9765": " pron",
  "9766": " enhance",
  "9767": " dish",
  "9768": " ceremony",
  "9769": " PD",
  "9770": "■■",
  "9771": "sub",
  "9772": "asty",
  "9773": " calm",
  "9774": " Through",
  "9775": " Ros",
  "9776": " Pant",
  "9777": " vend",
  "9778": " tempor",
  "9779": " analyst",
  "9780": " aims",
  "9781": " studying",
  "9782": " legislative",
  "9783": " implications",
  "9784": " everyday",
  "9785": " clinical",
  "9786": " Store",
  "9787": "brid",
  "9788": "82",
  "9789": "71",
  "9790": " Person",
  "9791": "vertisements",
  "9792": "race",
  "9793": " tut",
  "9794": " parad",
  "9795": " intim",
  "9796": " executives",
  "9797": " Lt",
  "9798": " Lions",
  "9799": " Gh",
  "9800": " Elizabeth",
  "9801": "igate",
  "9802": "TR",
  "9803": "CO",
  "9804": " cognitive",
  "9805": " chest",
  "9806": " Prince",
  "9807": " creature",
  "9808": "player",
  "9809": "party",
  "9810": "omy",
  "9811": "ctic",
  "9812": "bury",
  "9813": "alysis",
  "9814": " stance",
  "9815": " simultane",
  "9816": " possess",
  "9817": " nose",
  "9818": " compat",
  "9819": " Dal",
  "9820": "cest",
  "9821": " tired",
  "9822": " pharm",
  "9823": " nerv",
  "9824": " museum",
  "9825": " employers",
  "9826": " Jere",
  "9827": "onder",
  "9828": "dy",
  "9829": " harassment",
  "9830": " cooperation",
  "9831": " Run",
  "9832": " !",
  "9833": "yes",
  "9834": "elf",
  "9835": "650",
  "9836": " quit",
  "9837": " lineup",
  "9838": " centuries",
  "9839": " execution",
  "9840": "tenance",
  "9841": "ailed",
  "9842": " violations",
  "9843": " variable",
  "9844": " promoting",
  "9845": " collaboration",
  "9846": " chicken",
  "9847": " Have",
  "9848": " journalism",
  "9849": " errors",
  "9850": " cream",
  "9851": " bullet",
  "9852": " beating",
  "9853": " Antonio",
  "9854": " psychological",
  "9855": " les",
  "9856": " Bal",
  "9857": "oting",
  "9858": "ocial",
  "9859": "amous",
  "9860": " Edward",
  "9861": "elle",
  "9862": "alties",
  "9863": "aga",
  "9864": " interaction",
  "9865": " facilit",
  "9866": " contribution",
  "9867": " Represent",
  "9868": " Gil",
  "9869": " sections",
  "9870": " pros",
  "9871": " preferred",
  "9872": " dispute",
  "9873": " Adv",
  "9874": "rac",
  "9875": "mind",
  "9876": "affe",
  "9877": " pa",
  "9878": " fossil",
  "9879": " Sweden",
  "9880": " Hong",
  "9881": "umble",
  "9882": "rock",
  "9883": "raig",
  "9884": "press",
  "9885": "iture",
  "9886": "ded",
  "9887": " physically",
  "9888": " dominant",
  "9889": " civilian",
  "9890": " burden",
  "9891": " Olympic",
  "9892": " Jean",
  "9893": "alia",
  "9894": " suspects",
  "9895": " promising",
  "9896": " principal",
  "9897": " mit",
  "9898": " damaged",
  "9899": " Som",
  "9900": " Mississippi",
  "9901": " Instagram",
  "9902": " EC",
  "9903": "utter",
  "9904": " perceived",
  "9905": " difficulty",
  "9906": " categories",
  "9907": " Leader",
  "9908": "icipal",
  "9909": " surviv",
  "9910": " fet",
  "9911": " Batman",
  "9912": " sheet",
  "9913": " reforms",
  "9914": " memories",
  "9915": " Palestinians",
  "9916": " Award",
  "9917": "isa",
  "9918": " managing",
  "9919": " demanded",
  "9920": " Tes",
  "9921": " Barn",
  "9922": " investments",
  "9923": " explaining",
  "9924": " accessible",
  "9925": "week",
  "9926": "licop",
  "9927": "inth",
  "9928": "dated",
  "9929": "Act",
  "9930": " instructions",
  "9931": " indu",
  "9932": " Bruce",
  "9933": " 61",
  "9934": "walk",
  "9935": "Fi",
  "9936": " stored",
  "9937": " picking",
  "9938": "ierce",
  "9939": " theories",
  "9940": " reserved",
  "9941": " overseas",
  "9942": " mole",
  "9943": " ideology",
  "9944": " fights",
  "9945": " delic",
  "9946": " Orig",
  "9947": " Da",
  "9948": "estyle",
  "9949": "--------------------------------",
  "9950": " hosted",
  "9951": " Wales",
  "9952": " Pentagon",
  "9953": " pill",
  "9954": " grade",
  "9955": " Story",
  "9956": " Hal",
  "9957": "odge",
  "9958": " regulatory",
  "9959": " pm",
  "9960": " desert",
  "9961": "security",
  "9962": "adesh",
  "9963": "Mich",
  "9964": " undert",
  "9965": " mood",
  "9966": " emerging",
  "9967": " Harper",
  "9968": "endar",
  "9969": " procedure",
  "9970": " Email",
  "9971": " _",
  "9972": "(\"",
  "9973": " seed",
  "9974": " Steam",
  "9975": " Hitler",
  "9976": "icity",
  "9977": "acts",
  "9978": "ova",
  "9979": "hard",
  "9980": "emic",
  "9981": " lapt",
  "9982": " Robinson",
  "9983": " Rather",
  "9984": "necess",
  "9985": " sits",
  "9986": " landing",
  "9987": " lens",
  "9988": " helicop",
  "9989": " Delhi",
  "9990": " 1950",
  "9991": "wed",
  "9992": "bourne",
  "9993": " outlets",
  "9994": " indicates",
  "9995": "Ms",
  "9996": " ridiculous",
  "9997": " Section",
  "9998": "ixed",
  "9999": "<|endoftext|>"
}